<unk>	0
<endofline>	0
<endoftext>	0
<endoffunc>	0
<DEDENT>	0
<INDENT>	0
<STR_LIT>	0
<NUM_LIT>	0
<CHAR_LIT>	0
<REGEX_LIT>	0
<NUM_LIT:-1>	0
<NUM_LIT:0>	0
<NUM_LIT:0.>	0
<NUM_LIT:0.0>	0
<NUM_LIT:0.02>	0
<NUM_LIT:0.0f>	0
<NUM_LIT:0.1>	0
<NUM_LIT:0.5>	0
<NUM_LIT:0F>	0
<NUM_LIT:0f>	0
<NUM_LIT:0x0>	0
<NUM_LIT:0x00>	0
<NUM_LIT:0x0000>	0
<NUM_LIT:0x00000000>	0
<NUM_LIT:0x0001>	0
<NUM_LIT:0x000a>	0
<NUM_LIT:0x000c>	0
<NUM_LIT:0x000d>	0
<NUM_LIT:0x01>	0
<NUM_LIT:0x1>	0
<NUM_LIT:0x10>	0
<NUM_LIT:0x2>	0
<NUM_LIT:0x20>	0
<NUM_LIT:0x2000>	0
<NUM_LIT:0x3>	0
<NUM_LIT:0x3f>	0
<NUM_LIT:0x4>	0
<NUM_LIT:0x40>	0
<NUM_LIT:0x4000>	0
<NUM_LIT:0x5>	0
<NUM_LIT:0x6>	0
<NUM_LIT:0x7>	0
<NUM_LIT:0x8>	0
<NUM_LIT:0x80>	0
<NUM_LIT:0xFF>	0
<NUM_LIT:0xff>	0
<NUM_LIT:1>	0
<NUM_LIT:1.>	0
<NUM_LIT:1.0>	0
<NUM_LIT:1.0f>	0
<NUM_LIT:10>	0
<NUM_LIT:100>	0
<NUM_LIT:1000>	0
<NUM_LIT:10080>	0
<NUM_LIT:1024>	0
<NUM_LIT:11>	0
<NUM_LIT:12>	0
<NUM_LIT:128>	0
<NUM_LIT:13>	0
<NUM_LIT:14>	0
<NUM_LIT:1440>	0
<NUM_LIT:15>	0
<NUM_LIT:16>	0
<NUM_LIT:16384>	0
<NUM_LIT:168>	0
<NUM_LIT:17>	0
<NUM_LIT:18>	0
<NUM_LIT:19>	0
<NUM_LIT:1L>	0
<NUM_LIT:1f>	0
<NUM_LIT:2>	0
<NUM_LIT:20>	0
<NUM_LIT:200>	0
<NUM_LIT:2048>	0
<NUM_LIT:21>	0
<NUM_LIT:22>	0
<NUM_LIT:23>	0
<NUM_LIT:24>	0
<NUM_LIT:25>	0
<NUM_LIT:255>	0
<NUM_LIT:256>	0
<NUM_LIT:26>	0
<NUM_LIT:27>	0
<NUM_LIT:28>	0
<NUM_LIT:29>	0
<NUM_LIT:3>	0
<NUM_LIT:30>	0
<NUM_LIT:31>	0
<NUM_LIT:32>	0
<NUM_LIT:3600>	0
<NUM_LIT:365>	0
<NUM_LIT:4>	0
<NUM_LIT:4096>	0
<NUM_LIT:42>	0
<NUM_LIT:43>	0
<NUM_LIT:43200>	0
<NUM_LIT:5>	0
<NUM_LIT:50>	0
<NUM_LIT:500>	0
<NUM_LIT:512>	0
<NUM_LIT:55>	0
<NUM_LIT:556>	0
<NUM_LIT:6>	0
<NUM_LIT:60>	0
<NUM_LIT:600>	0
<NUM_LIT:602>	0
<NUM_LIT:64>	0
<NUM_LIT:7>	0
<NUM_LIT:720>	0
<NUM_LIT:754>	0
<NUM_LIT:8>	0
<NUM_LIT:8192>	0
<NUM_LIT:838>	0
<NUM_LIT:9>	0
<NUM_LIT:number>	0
<STR_LIT:!>	0
<STR_LIT:!=>	0
<STR_LIT:">	0
<STR_LIT:">>	0
<STR_LIT:#>	0
<STR_LIT:#1>	0
<STR_LIT:#2>	0
<STR_LIT:#3>	0
<STR_LIT:#4>	0
<STR_LIT:#5>	0
<STR_LIT:#fff>	0
<STR_LIT:#pop>	0
<STR_LIT:#{key}=>	0
<STR_LIT:#{value}>	0
<STR_LIT:$>	0
<STR_LIT:$1>	0
<STR_LIT:$FreeBSD$>	0
<STR_LIT:%>	0
<STR_LIT:%#v>	0
<STR_LIT:%+v>	0
<STR_LIT:%02x>	0
<STR_LIT:%02xU+0020>	0
<STR_LIT:%1>	0
<STR_LIT:%c>	0
<STR_LIT:%d>	0
<STR_LIT:%d\n>	0
<STR_LIT:%i>	0
<STR_LIT:%ld\n>	0
<STR_LIT:%llu\n>	0
<STR_LIT:%lu\n>	0
<STR_LIT:%p>	0
<STR_LIT:%s>	0
<STR_LIT:%s%s>	0
<STR_LIT:%s'U+0020GotU+0020'%s>	0
<STR_LIT:%s()\n>	0
<STR_LIT:%s/%s>	0
<STR_LIT:%s:U+0020>	0
<STR_LIT:%s:U+0020%s\n>	0
<STR_LIT:%s:\n>	0
<STR_LIT:%sU+0020>	0
<STR_LIT:%s\n>	0
<STR_LIT:%u>	0
<STR_LIT:%u\n>	0
<STR_LIT:%v>	0
<STR_LIT:%x>	0
<STR_LIT:&>	0
<STR_LIT:'>	0
<STR_LIT:'{0}'>	0
<STR_LIT:(>	0
<STR_LIT:(*>	0
<STR_LIT:)>	0
<STR_LIT:)(>	0
<STR_LIT:)U+0020>	0
<STR_LIT:)\n>	0
<STR_LIT:*>	0
<STR_LIT:+>	0
<STR_LIT:+0>	0
<STR_LIT:+1>	0
<STR_LIT:+10>	0
<STR_LIT:+11>	0
<STR_LIT:+13>	0
<STR_LIT:+14>	0
<STR_LIT:+19>	0
<STR_LIT:+2>	0
<STR_LIT:+3>	0
<STR_LIT:+4>	0
<STR_LIT:+5>	0
<STR_LIT:+6>	0
<STR_LIT:+7>	0
<STR_LIT:+8>	0
<STR_LIT:+9>	0
<STR_LIT:+r>	0
<STR_LIT:->	0
<STR_LIT:-->	0
<STR_LIT:-1>	0
<STR_LIT:-c>	0
<STR_LIT:-x86>	0
<STR_LIT:.>	0
<STR_LIT:.*>	0
<STR_LIT:..>	0
<STR_LIT:...>	0
<STR_LIT:../../../spec_helper>	0
<STR_LIT:../../spec_helper>	0
<STR_LIT:../models/index>	0
<STR_LIT:../protocols/Aws_json1_1>	0
<STR_LIT:../types>	0
<STR_LIT:./>	0
<STR_LIT:./app.component>	0
<STR_LIT:./configure>	0
<STR_LIT:./types>	0
<STR_LIT:.class>	0
<STR_LIT:.php>	0
<STR_LIT:/>	0
<STR_LIT:/..>	0
<STR_LIT:0>	0
<STR_LIT:1>	0
<STR_LIT:1.0>	0
<STR_LIT:1.0.0>	0
<STR_LIT:1.0.0.0>	0
<STR_LIT:10>	0
<STR_LIT:100>	0
<STR_LIT:100%>	0
<STR_LIT:11.0.0.0>	0
<STR_LIT:123>	0
<STR_LIT:12345>	0
<STR_LIT:1234567890>	0
<STR_LIT:12345678901234567890>	0
<STR_LIT:127.0.0.1>	0
<STR_LIT:1T>	0
<STR_LIT:2>	0
<STR_LIT:2.0>	0
<STR_LIT:2.4G>	0
<STR_LIT:20M>	0
<STR_LIT:3>	0
<STR_LIT:32>	0
<STR_LIT:4>	0
<STR_LIT:4.0.0.0>	0
<STR_LIT:5>	0
<STR_LIT:5G>	0
<STR_LIT:6>	0
<STR_LIT:9>	0
<STR_LIT::>	0
<STR_LIT:::>	0
<STR_LIT::U+0020>	0
<STR_LIT:;>	0
<STR_LIT:;U+0020>	0
<STR_LIT:;\n>	0
<STR_LIT:<>	0
<STR_LIT:</a>>	0
<STR_LIT:</div>>	0
<STR_LIT:</p>>	0
<STR_LIT:<nil>>	0
<STR_LIT:=>	0
<STR_LIT:=&f>	0
<STR_LIT:=&r>	0
<STR_LIT:==>	0
<STR_LIT:=a>	0
<STR_LIT:=d>	0
<STR_LIT:=m>	0
<STR_LIT:=r>	0
<STR_LIT:>>	0
<STR_LIT:?>	0
<STR_LIT:???>	0
<STR_LIT:@>	0
<STR_LIT:@angular/common>	0
<STR_LIT:@angular/core>	0
<STR_LIT:@angular/core/testing>	0
<STR_LIT:@angular/forms>	0
<STR_LIT:@angular/platform-browser>	0
<STR_LIT:@angular/router>	0
<STR_LIT:@aws-sdk/middleware-serde>	0
<STR_LIT:@aws-sdk/protocol-http>	0
<STR_LIT:@aws-sdk/smithy-client>	0
<STR_LIT:@aws-sdk/types>	0
<STR_LIT:@ngrx/store>	0
<STR_LIT:A>	0
<STR_LIT:A1>	0
<STR_LIT:ADC>	0
<STR_LIT:AIa>	0
<STR_LIT:ANALOG>	0
<STR_LIT:AU+0020andU+0020B>	0
<STR_LIT:AVq>	0
<STR_LIT:Accept>	0
<STR_LIT:Access>	0
<STR_LIT:AccessU+0020isU+0020denied.>	0
<STR_LIT:Acer>	0
<STR_LIT:Action>	0
<STR_LIT:Add>	0
<STR_LIT:AndU+0020>	0
<STR_LIT:Arch>	0
<STR_LIT:Author>	0
<STR_LIT:Azure>	0
<STR_LIT:AzureAD>	0
<STR_LIT:AzureCloud>	0
<STR_LIT:AzureFunctionsApp1>	0
<STR_LIT:AzureFunctionsApp1.csproj>	0
<STR_LIT:AzureKey>	0
<STR_LIT:AzureServiceBusEnabled>	0
<STR_LIT:AzureToken>	0
<STR_LIT:AzureWebJobsStorage>	0
<STR_LIT:B>	0
<STR_LIT:BadChars>	0
<STR_LIT:Bar>	0
<STR_LIT:Behavior>	0
<STR_LIT:Boolean>	0
<STR_LIT:C>	0
<STR_LIT:CVE>	0
<STR_LIT:CallingU+0020bad()...>	0
<STR_LIT:CallingU+0020good()...>	0
<STR_LIT:Cancel>	0
<STR_LIT:Capture>	0
<STR_LIT:Category>	0
<STR_LIT:ClientId>	0
<STR_LIT:Composite>	0
<STR_LIT:Content-Type>	0
<STR_LIT:CopyrightU+0020©U+0020U+00202014>	0
<STR_LIT:CopyrightU+0020©U+0020U+00202015>	0
<STR_LIT:Count>	0
<STR_LIT:D>	0
<STR_LIT:DAC>	0
<STR_LIT:DCy>	0
<STR_LIT:DELETE>	0
<STR_LIT:DWORD>	0
<STR_LIT:Data>	0
<STR_LIT:Debug>	0
<STR_LIT:Default>	0
<STR_LIT:DefaultOptions>	0
<STR_LIT:DefaultTarget>	0
<STR_LIT:Delete>	0
<STR_LIT:Description>	0
<STR_LIT:DisclosureDate>	0
<STR_LIT:Doppelganger>	0
<STR_LIT:DualU+0020BSD/GPL>	0
<STR_LIT:E>	0
<STR_LIT:EUd>	0
<STR_LIT:EVENTOUT>	0
<STR_LIT:Error>	0
<STR_LIT:Excel>	0
<STR_LIT:F>	0
<STR_LIT:FailureU+0020preparingU+0020request>	0
<STR_LIT:FailureU+0020sendingU+0020request>	0
<STR_LIT:False>	0
<STR_LIT:FinishedU+0020bad()>	0
<STR_LIT:FinishedU+0020good()>	0
<STR_LIT:Foo>	0
<STR_LIT:Fx>	0
<STR_LIT:GET>	0
<STR_LIT:GMT>	0
<STR_LIT:GPL>	0
<STR_LIT:GPLU+0020v2>	0
<STR_LIT:Get>	0
<STR_LIT:H>	0
<STR_LIT:HEAD>	0
<STR_LIT:HT>	0
<STR_LIT:HeadphoneU+0020Jack>	0
<STR_LIT:Hello>	0
<STR_LIT:Home>	0
<STR_LIT:I>	0
<STR_LIT:ID>	0
<STR_LIT:ILl>	0
<STR_LIT:Id>	0
<STR_LIT:Index>	0
<STR_LIT:InnerProduct>	0
<STR_LIT:Is>	0
<STR_LIT:Item>	0
<STR_LIT:KAo>	0
<STR_LIT:Key>	0
<STR_LIT:Km>	0
<STR_LIT:L>	0
<STR_LIT:License>	0
<STR_LIT:LinkedField>	0
<STR_LIT:List>	0
<STR_LIT:M>	0
<STR_LIT:MSHTML>	0
<STR_LIT:MSProject>	0
<STR_LIT:Message>	0
<STR_LIT:Meta>	0
<STR_LIT:Microsoft>	0
<STR_LIT:Microsoft-HTTPAPI/2.0>	0
<STR_LIT:Microsoft-IIS/8.5>	0
<STR_LIT:Microsoft.>	0
<STR_LIT:Microsoft.AspNetCore>	0
<STR_LIT:Microsoft.AspNetCore.App>	0
<STR_LIT:Microsoft.AspNetCore.Mvc>	0
<STR_LIT:Microsoft.Build.Tasks.dll>	0
<STR_LIT:Microsoft.Build.dll>	0
<STR_LIT:Microsoft.CSharp>	0
<STR_LIT:Microsoft.CSharp.dll>	0
<STR_LIT:Microsoft.Cci>	0
<STR_LIT:Microsoft.Concurrency>	0
<STR_LIT:Microsoft.Contracts>	0
<STR_LIT:Microsoft.Contracts.dll>	0
<STR_LIT:Microsoft.Design>	0
<STR_LIT:Microsoft.Globalization>	0
<STR_LIT:Microsoft.MSInternal>	0
<STR_LIT:Microsoft.Maintainability>	0
<STR_LIT:Microsoft.NET>	0
<STR_LIT:Microsoft.NET.Sdk>	0
<STR_LIT:Microsoft.NETCore.App>	0
<STR_LIT:Microsoft.Naming>	0
<STR_LIT:Microsoft.OSTCExtensions>	0
<STR_LIT:Microsoft.Performance>	0
<STR_LIT:Microsoft.Portability>	0
<STR_LIT:Microsoft.Reliability>	0
<STR_LIT:Microsoft.Security>	0
<STR_LIT:Microsoft.Security.Xml>	0
<STR_LIT:Microsoft.SharePoint>	0
<STR_LIT:Microsoft.Usage>	0
<STR_LIT:Microsoft.VisualBasic>	0
<STR_LIT:Microsoft.VisualBasic.dll>	0
<STR_LIT:Microsoft.Web.FxCop>	0
<STR_LIT:Microsoft.XMLDOM>	0
<STR_LIT:Microsoft.XMLHTTP>	0
<STR_LIT:MicrosoftAccount>	0
<STR_LIT:MicrosoftAjax.debug.js>	0
<STR_LIT:MicrosoftAjax.js>	0
<STR_LIT:MicrosoftAjaxCore.js>	0
<STR_LIT:MicrosoftAjaxNetwork.js>	0
<STR_LIT:MicrosoftAjaxWebForms.js>	0
<STR_LIT:MicrosoftClientId>	0
<STR_LIT:MicrosoftClientSecret>	0
<STR_LIT:MicrosoftU+0020Corp.>	0
<STR_LIT:MicrosoftU+0020Corporation>	0
<STR_LIT:MicrosoftU+0020IT>	0
<STR_LIT:MicrosoftU+0020SansU+0020Serif>	0
<STR_LIT:MicrosoftU+0020YaHei>	0
<STR_LIT:MyTodo.Data.WindowsAzure>	0
<STR_LIT:N>	0
<STR_LIT:NULL>	0
<STR_LIT:Name>	0
<STR_LIT:None>	0
<STR_LIT:NotU+0020supportedU+0020yet.>	0
<STR_LIT:Number>	0
<STR_LIT:O>	0
<STR_LIT:OK>	0
<STR_LIT:OSVDB>	0
<STR_LIT:OWC10>	0
<STR_LIT:Object>	0
<STR_LIT:Off>	0
<STR_LIT:Office>	0
<STR_LIT:Outlook>	0
<STR_LIT:P>	0
<STR_LIT:POST>	0
<STR_LIT:PUT>	0
<STR_LIT:Password>	0
<STR_LIT:Payload>	0
<STR_LIT:Platform>	0
<STR_LIT:Playback>	0
<STR_LIT:PowerPoint>	0
<STR_LIT:Privileged>	0
<STR_LIT:R>	0
<STR_LIT:Ra>	0
<STR_LIT:RakNet>	0
<STR_LIT:References>	0
<STR_LIT:Reserved>	0
<STR_LIT:Ret>	0
<STR_LIT:RoleId>	0
<STR_LIT:Route>	0
<STR_LIT:S>	0
<STR_LIT:SYSCLK>	0
<STR_LIT:ScalarField>	0
<STR_LIT:Sequence>	0
<STR_LIT:SharingClient>	0
<STR_LIT:Space>	0
<STR_LIT:Speaker>	0
<STR_LIT:SqlAzureConnectionString>	0
<STR_LIT:SqlAzureTableColumns>	0
<STR_LIT:SqlAzureTableName>	0
<STR_LIT:StdAfx.h>	0
<STR_LIT:String>	0
<STR_LIT:StringElementType>	0
<STR_LIT:Su>	0
<STR_LIT:Switch>	0
<STR_LIT:System>	0
<STR_LIT:T>	0
<STR_LIT:Targets>	0
<STR_LIT:TenantId>	0
<STR_LIT:Test>	0
<STR_LIT:TestAzure>	0
<STR_LIT:Text>	0
<STR_LIT:Title>	0
<STR_LIT:True>	0
<STR_LIT:Type>	0
<STR_LIT:U>	0
<STR_LIT:U+0020>	0
<STR_LIT:U+0020%02x>	0
<STR_LIT:U+0020%s>	0
<STR_LIT:U+0020(>	0
<STR_LIT:U+0020(x86)>	0
<STR_LIT:U+0020->U+0020>	0
<STR_LIT:U+0020-U+0020>	0
<STR_LIT:U+0020:U+0020>	0
<STR_LIT:U+0020=U+0020>	0
<STR_LIT:U+0020=U+0020%d>	0
<STR_LIT:U+0020U+0020>	0
<STR_LIT:U+0020U+0020U+0020U+0020>	0
<STR_LIT:U+0020U+0020U+0020U+0020U+0020U+0020std:U+00200.01U+0020>	0
<STR_LIT:U+0020U+0020U+0020U+0020bias_fillerU+0020{U+0020>	0
<STR_LIT:U+0020U+0020U+0020U+0020weight_fillerU+0020{U+0020>	0
<STR_LIT:U+0020U+0020U+0020U+0020}U+0020>	0
<STR_LIT:U+0020U+0020U+0020U+0020}\n>	0
<STR_LIT:U+0020U+0020layerU+0020{U+0020>	0
<STR_LIT:U+0020U+0020paramU+0020{U+0020>	0
<STR_LIT:U+0020U+0020}>	0
<STR_LIT:U+0020U+0020}U+0020>	0
<STR_LIT:U+0020U+0020}\n>	0
<STR_LIT:U+0020andU+0020>	0
<STR_LIT:U+0020toU+0020>	0
<STR_LIT:U+002C>	0
<STR_LIT:U+002CU+0020>	0
<STR_LIT:U+002CU+0020r>	0
<STR_LIT:U+002C\n>	0
<STR_LIT:U+002Cinline>	0
<STR_LIT:U+002Comitempty>	0
<STR_LIT:UNKNOWN>	0
<STR_LIT:URL>	0
<STR_LIT:UTF-8>	0
<STR_LIT:UnitTest>	0
<STR_LIT:Unknown>	0
<STR_LIT:UserId>	0
<STR_LIT:V>	0
<STR_LIT:VAg>	0
<STR_LIT:Value>	0
<STR_LIT:Version>	0
<STR_LIT:Visio>	0
<STR_LIT:Vn>	0
<STR_LIT:Word>	0
<STR_LIT:X>	0
<STR_LIT:Y>	0
<STR_LIT:Z>	0
<STR_LIT:[>	0
<STR_LIT:[?]>	0
<STR_LIT:[PROJECT]>	0
<STR_LIT:[]>	0
<STR_LIT:\">	0
<STR_LIT:\"\">	0
<STR_LIT:\'>	0
<STR_LIT:\0>	0
<STR_LIT:\\>	0
<STR_LIT:\\.>	0
<STR_LIT:\n>	0
<STR_LIT:\n\n>	0
<STR_LIT:\n\t>	0
<STR_LIT:\r>	0
<STR_LIT:\r\n>	0
<STR_LIT:\t>	0
<STR_LIT:\ufffe>	0
<STR_LIT:\x00>	0
<STR_LIT:\x86>	0
<STR_LIT:]>	0
<STR_LIT:^>	0
<STR_LIT:_>	0
<STR_LIT:__HYz>	0
<STR_LIT:__Internal>	0
<STR_LIT:__main__>	0
<STR_LIT:_cvp_Core.PatientShort>	0
<STR_LIT:_cvp_Naes.Referral>	0
<STR_LIT:_id>	0
<STR_LIT:a>	0
<STR_LIT:abbreviated>	0
<STR_LIT:abc>	0
<STR_LIT:abcde>	0
<STR_LIT:abcdeabcde>	0
<STR_LIT:abcdeabcdeabcdeabcde>	0
<STR_LIT:abcdefghij>	0
<STR_LIT:abcdefghijklmnopqrst>	0
<STR_LIT:absolute>	0
<STR_LIT:accept-language>	0
<STR_LIT:accommon.h>	0
<STR_LIT:action>	0
<STR_LIT:active>	0
<STR_LIT:address>	0
<STR_LIT:addressU+0020alreadyU+0020inU+0020use>	0
<STR_LIT:admin>	0
<STR_LIT:ahb>	0
<STR_LIT:alias>	0
<STR_LIT:all>	0
<STR_LIT:api-version>	0
<STR_LIT:app>	0
<STR_LIT:application/json>	0
<STR_LIT:args>	0
<STR_LIT:args_x86_64>	0
<STR_LIT:array>	0
<STR_LIT:ascii>	0
<STR_LIT:assert>	0
<STR_LIT:attributes>	0
<STR_LIT:auto>	0
<STR_LIT:avcodec.h>	0
<STR_LIT:azure>	0
<STR_LIT:azure_resource_group_name>	0
<STR_LIT:b>	0
<STR_LIT:badU+0020address>	0
<STR_LIT:bar>	0
<STR_LIT:base>	0
<STR_LIT:baz>	0
<STR_LIT:bitcoin-core>	0
<STR_LIT:blank>	0
<STR_LIT:block>	0
<STR_LIT:body>	0
<STR_LIT:bool>	0
<STR_LIT:boolean>	0
<STR_LIT:border>	0
<STR_LIT:bottom>	0
<STR_LIT:brokenU+0020pipe>	0
<STR_LIT:bufio>	0
<STR_LIT:busybox>	0
<STR_LIT:button>	0
<STR_LIT:bytes>	0
<STR_LIT:c>	0
<STR_LIT:caffe/blob.hpp>	0
<STR_LIT:caffe/common.hpp>	0
<STR_LIT:caffe/filler.hpp>	0
<STR_LIT:can'tU+0020happen>	0
<STR_LIT:cast>	0
<STR_LIT:category>	0
<STR_LIT:cbase.h>	0
<STR_LIT:cc>	0
<STR_LIT:center>	0
<STR_LIT:chai>	0
<STR_LIT:change>	0
<STR_LIT:checkbox>	0
<STR_LIT:checked>	0
<STR_LIT:children>	0
<STR_LIT:class>	0
<STR_LIT:click>	0
<STR_LIT:client>	0
<STR_LIT:clock-frequency>	0
<STR_LIT:clock.h>	0
<STR_LIT:close>	0
<STR_LIT:cmemory.h>	0
<STR_LIT:code>	0
<STR_LIT:color>	0
<STR_LIT:column>	0
<STR_LIT:comment>	0
<STR_LIT:common.h>	0
<STR_LIT:complete>	0
<STR_LIT:concreteType>	0
<STR_LIT:config>	0
<STR_LIT:config.h>	0
<STR_LIT:connectionU+0020refused>	0
<STR_LIT:connectionU+0020resetU+0020byU+0020peer>	0
<STR_LIT:constant>	0
<STR_LIT:content>	0
<STR_LIT:context>	0
<STR_LIT:continued>	0
<STR_LIT:conv1>	0
<STR_LIT:core>	0
<STR_LIT:core.h>	0
<STR_LIT:count>	0
<STR_LIT:cpu>	0
<STR_LIT:create>	0
<STR_LIT:created_at>	0
<STR_LIT:cryptlib.h>	0
<STR_LIT:d>	0
<STR_LIT:data>	0
<STR_LIT:date>	0
<STR_LIT:db>	0
<STR_LIT:debug>	0
<STR_LIT:debug.h>	0
<STR_LIT:default>	0
<STR_LIT:delete>	0
<STR_LIT:deprecation>	0
<STR_LIT:desc>	0
<STR_LIT:description>	0
<STR_LIT:dev>	0
<STR_LIT:disabled>	0
<STR_LIT:display>	0
<STR_LIT:div>	0
<STR_LIT:double>	0
<STR_LIT:dummy>	0
<STR_LIT:e>	0
<STR_LIT:edit>	0
<STR_LIT:email>	0
<STR_LIT:en>	0
<STR_LIT:en-US>	0
<STR_LIT:enable>	0
<STR_LIT:enabled>	0
<STR_LIT:encoding/base64>	0
<STR_LIT:encoding/binary>	0
<STR_LIT:encoding/json>	0
<STR_LIT:end>	0
<STR_LIT:error>	0
<STR_LIT:errors>	0
<STR_LIT:events>	0
<STR_LIT:exception>	0
<STR_LIT:execU+0020formatU+0020error>	0
<STR_LIT:exit>	0
<STR_LIT:exports>	0
<STR_LIT:f>	0
<STR_LIT:f2c.h>	0
<STR_LIT:fade>	0
<STR_LIT:failed\n>	0
<STR_LIT:false>	0
<STR_LIT:fc6>	0
<STR_LIT:field>	0
<STR_LIT:fields>	0
<STR_LIT:file>	0
<STR_LIT:fileU+0020exists>	0
<STR_LIT:fileU+0020nameU+0020tooU+0020long>	0
<STR_LIT:fileU+0020tooU+0020large>	0
<STR_LIT:filename>	0
<STR_LIT:fileutils>	0
<STR_LIT:fill>	0
<STR_LIT:fin_pll>	0
<STR_LIT:first>	0
<STR_LIT:flag>	0
<STR_LIT:float>	0
<STR_LIT:fmt>	0
<STR_LIT:focus>	0
<STR_LIT:foo>	0
<STR_LIT:foobar>	0
<STR_LIT:form>	0
<STR_LIT:format>	0
<STR_LIT:four>	0
<STR_LIT:fr>	0
<STR_LIT:fs>	0
<STR_LIT:full>	0
<STR_LIT:function>	0
<STR_LIT:fx>	0
<STR_LIT:g>	0
<STR_LIT:gSize>	0
<STR_LIT:gaussian>	0
<STR_LIT:generic.h>	0
<STR_LIT:get>	0
<STR_LIT:github.com/pkg/errors>	0
<STR_LIT:golang.org/x/net/context>	0
<STR_LIT:gpio>	0
<STR_LIT:gpio_in>	0
<STR_LIT:gpio_out>	0
<STR_LIT:group>	0
<STR_LIT:gtest/gtest.h>	0
<STR_LIT:h>	0
<STR_LIT:hangup>	0
<STR_LIT:hclk>	0
<STR_LIT:header>	0
<STR_LIT:height>	0
<STR_LIT:hello>	0
<STR_LIT:help>	0
<STR_LIT:helper>	0
<STR_LIT:hex>	0
<STR_LIT:hidden>	0
<STR_LIT:hide>	0
<STR_LIT:host>	0
<STR_LIT:hostU+0020isU+0020down>	0
<STR_LIT:href>	0
<STR_LIT:html>	0
<STR_LIT:http>	0
<STR_LIT:http://>	0
<STR_LIT:httpMethod>	0
<STR_LIT:https>	0
<STR_LIT:i>	0
<STR_LIT:id>	0
<STR_LIT:ignore>	0
<STR_LIT:illegalU+0020seek>	0
<STR_LIT:image>	0
<STR_LIT:in>	0
<STR_LIT:includes.h>	0
<STR_LIT:index>	0
<STR_LIT:info>	0
<STR_LIT:innerprod>	0
<STR_LIT:input>	0
<STR_LIT:install>	0
<STR_LIT:int>	0
<STR_LIT:integer>	0
<STR_LIT:internal.h>	0
<STR_LIT:interrupt>	0
<STR_LIT:interruptedU+0020systemU+0020call>	0
<STR_LIT:invalidU+0020argument>	0
<STR_LIT:invariant>	0
<STR_LIT:io>	0
<STR_LIT:io.h>	0
<STR_LIT:io/ioutil>	0
<STR_LIT:ipg>	0
<STR_LIT:isU+0020aU+0020directory>	0
<STR_LIT:item>	0
<STR_LIT:items>	0
<STR_LIT:jquery>	0
<STR_LIT:json>	0
<STR_LIT:k>	0
<STR_LIT:k8s.io/api/core/v1>	0
<STR_LIT:k8s.io/client-go/rest>	0
<STR_LIT:kernel>	0
<STR_LIT:kernel32.dll>	0
<STR_LIT:key>	0
<STR_LIT:key1>	0
<STR_LIT:keydown>	0
<STR_LIT:keyword>	0
<STR_LIT:killed>	0
<STR_LIT:kind>	0
<STR_LIT:l>	0
<STR_LIT:label>	0
<STR_LIT:label1>	0
<STR_LIT:label2>	0
<STR_LIT:language>	0
<STR_LIT:layerU+0020{U+0020>	0
<STR_LIT:layersU+0020{U+0020>	0
<STR_LIT:lcd0>	0
<STR_LIT:left>	0
<STR_LIT:length>	0
<STR_LIT:lgSize>	0
<STR_LIT:li>	0
<STR_LIT:lib>	0
<STR_LIT:limit>	0
<STR_LIT:line>	0
<STR_LIT:line.separator>	0
<STR_LIT:link>	0
<STR_LIT:linux>	0
<STR_LIT:linux.*>	0
<STR_LIT:linux2>	0
<STR_LIT:linux64>	0
<STR_LIT:linux_i686>	0
<STR_LIT:linux_x86_64>	0
<STR_LIT:list>	0
<STR_LIT:listening>	0
<STR_LIT:llvm/ADT/STLExtras.h>	0
<STR_LIT:llvm/ADT/SmallString.h>	0
<STR_LIT:llvm/ADT/SmallVector.h>	0
<STR_LIT:llvm/ADT/Statistic.h>	0
<STR_LIT:llvm/ADT/StringRef.h>	0
<STR_LIT:llvm/IR/Constants.h>	0
<STR_LIT:llvm/IR/Function.h>	0
<STR_LIT:llvm/IR/Instructions.h>	0
<STR_LIT:llvm/IR/Module.h>	0
<STR_LIT:llvm/Pass.h>	0
<STR_LIT:llvm/Support/Debug.h>	0
<STR_LIT:load>	0
<STR_LIT:localhost>	0
<STR_LIT:location>	0
<STR_LIT:locationName>	0
<STR_LIT:lodash>	0
<STR_LIT:log>	0
<STR_LIT:long>	0
<STR_LIT:longDescription>	0
<STR_LIT:loss>	0
<STR_LIT:m>	0
<STR_LIT:main>	0
<STR_LIT:main.h>	0
<STR_LIT:make>	0
<STR_LIT:manylinux1>	0
<STR_LIT:match>	0
<STR_LIT:math>	0
<STR_LIT:math/rand>	0
<STR_LIT:max>	0
<STR_LIT:maxFrac>	0
<STR_LIT:max_length>	0
<STR_LIT:member>	0
<STR_LIT:members>	0
<STR_LIT:memory>	0
<STR_LIT:menu>	0
<STR_LIT:message>	0
<STR_LIT:messageU+0020tooU+0020long>	0
<STR_LIT:metadata>	0
<STR_LIT:method>	0
<STR_LIT:min>	0
<STR_LIT:minFrac>	0
<STR_LIT:minInt>	0
<STR_LIT:min_allocator.h>	0
<STR_LIT:mode>	0
<STR_LIT:model>	0
<STR_LIT:module>	0
<STR_LIT:ms-rest-azure>	0
<STR_LIT:msf/core>	0
<STR_LIT:msg=>	0
<STR_LIT:mysql>	0
<STR_LIT:n>	0
<STR_LIT:name>	0
<STR_LIT:nand0>	0
<STR_LIT:narrow>	0
<STR_LIT:needsU+0020investigation>	0
<STR_LIT:negPre>	0
<STR_LIT:negSuf>	0
<STR_LIT:net>	0
<STR_LIT:net/http>	0
<STR_LIT:net/url>	0
<STR_LIT:netcore-linux-failing>	0
<STR_LIT:networkU+0020isU+0020unreachable>	0
<STR_LIT:new>	0
<STR_LIT:next>	0
<STR_LIT:nextLink>	0
<STR_LIT:nil>	0
<STR_LIT:no>	0
<STR_LIT:noU+0020bufferU+0020spaceU+0020available>	0
<STR_LIT:noU+0020childU+0020processes>	0
<STR_LIT:noU+0020routeU+0020toU+0020host>	0
<STR_LIT:noU+0020spaceU+0020leftU+0020onU+0020device>	0
<STR_LIT:noU+0020suchU+0020fileU+0020orU+0020directory>	0
<STR_LIT:noU+0020suchU+0020process>	0
<STR_LIT:none>	0
<STR_LIT:notU+0020aU+0020directory>	0
<STR_LIT:null>	0
<STR_LIT:number>	0
<STR_LIT:o>	0
<STR_LIT:object>	0
<STR_LIT:object_name>	0
<STR_LIT:obsolete>	0
<STR_LIT:off>	0
<STR_LIT:on>	0
<STR_LIT:one>	0
<STR_LIT:opacity>	0
<STR_LIT:open>	0
<STR_LIT:operationU+0020nowU+0020inU+0020progress>	0
<STR_LIT:option>	0
<STR_LIT:options>	0
<STR_LIT:order>	0
<STR_LIT:os>	0
<STR_LIT:os/exec>	0
<STR_LIT:other>	0
<STR_LIT:out>	0
<STR_LIT:outU+0020ofU+0020memory>	0
<STR_LIT:outU+0020ofU+0020memory\n>	0
<STR_LIT:output>	0
<STR_LIT:p>	0
<STR_LIT:page>	0
<STR_LIT:parameters>	0
<STR_LIT:params>	0
<STR_LIT:parent>	0
<STR_LIT:parentNode>	0
<STR_LIT:password>	0
<STR_LIT:path>	0
<STR_LIT:path/filepath>	0
<STR_LIT:pch.h>	0
<STR_LIT:pci>	0
<STR_LIT:pclk>	0
<STR_LIT:permissionU+0020denied>	0
<STR_LIT:physmap-flash>	0
<STR_LIT:platform:>	0
<STR_LIT:plural>	0
<STR_LIT:port>	0
<STR_LIT:posPre>	0
<STR_LIT:posSuf>	0
<STR_LIT:position>	0
<STR_LIT:post>	0
<STR_LIT:precompiled.hpp>	0
<STR_LIT:prefix>	0
<STR_LIT:present>	0
<STR_LIT:previousSibling>	0
<STR_LIT:primary_key>	0
<STR_LIT:produces>	0
<STR_LIT:protocolU+0020notU+0020supported>	0
<STR_LIT:px>	0
<STR_LIT:q>	0
<STR_LIT:qemu/osdep.h>	0
<STR_LIT:quantitative>	0
<STR_LIT:query>	0
<STR_LIT:quit>	0
<STR_LIT:quotaUser>	0
<STR_LIT:r>	0
<STR_LIT:radio>	0
<STR_LIT:rails_helper>	0
<STR_LIT:rawtypes>	0
<STR_LIT:rb>	0
<STR_LIT:react>	0
<STR_LIT:read>	0
<STR_LIT:read-onlyU+0020fileU+0020system>	0
<STR_LIT:red>	0
<STR_LIT:reflect>	0
<STR_LIT:reg>	0
<STR_LIT:reg.h>	0
<STR_LIT:regexp>	0
<STR_LIT:related_name>	0
<STR_LIT:relu>	0
<STR_LIT:replace>	0
<STR_LIT:requestUri>	0
<STR_LIT:require>	0
<STR_LIT:required>	0
<STR_LIT:reset>	0
<STR_LIT:resourceGroupName>	0
<STR_LIT:result>	0
<STR_LIT:right>	0
<STR_LIT:root>	0
<STR_LIT:ruby>	0
<STR_LIT:rubygems>	0
<STR_LIT:run>	0
<STR_LIT:runtime>	0
<STR_LIT:rx>	0
<STR_LIT:rxjs>	0
<STR_LIT:rxjs/operators>	0
<STR_LIT:s>	0
<STR_LIT:s0>	0
<STR_LIT:safe_mode>	0
<STR_LIT:script>	0
<STR_LIT:scroll>	0
<STR_LIT:section>	0
<STR_LIT:seedU+0020=U+0020%dU+002CU+0020%#vU+0020!ProtoU+0020%#v>	0
<STR_LIT:seedU+0020=U+0020%dU+002CU+0020errU+0020=U+0020%v>	0
<STR_LIT:select>	0
<STR_LIT:selections>	0
<STR_LIT:serial>	0
<STR_LIT:set>	0
<STR_LIT:sh-sci>	0
<STR_LIT:shape>	0
<STR_LIT:short>	0
<STR_LIT:shortDescription>	0
<STR_LIT:shouldU+0020create>	0
<STR_LIT:shouldU+0020work>	0
<STR_LIT:show>	0
<STR_LIT:sinon>	0
<STR_LIT:size>	0
<STR_LIT:slug>	0
<STR_LIT:smarty>	0
<STR_LIT:sort>	0
<STR_LIT:source>	0
<STR_LIT:span>	0
<STR_LIT:spec_helper>	0
<STR_LIT:src>	0
<STR_LIT:start>	0
<STR_LIT:state>	0
<STR_LIT:static>	0
<STR_LIT:status>	0
<STR_LIT:std_testcase.h>	0
<STR_LIT:stdafx.h>	0
<STR_LIT:storageKey>	0
<STR_LIT:store>	0
<STR_LIT:store_true>	0
<STR_LIT:str>	0
<STR_LIT:strconv>	0
<STR_LIT:stream>	0
<STR_LIT:strict>	0
<STR_LIT:string>	0
<STR_LIT:strings>	0
<STR_LIT:structure>	0
<STR_LIT:style>	0
<STR_LIT:subscriptionId>	0
<STR_LIT:success>	0
<STR_LIT:sync>	0
<STR_LIT:sync/atomic>	0
<STR_LIT:syscall>	0
<STR_LIT:t>	0
<STR_LIT:table>	0
<STR_LIT:tags>	0
<STR_LIT:target>	0
<STR_LIT:tcp>	0
<STR_LIT:terminated>	0
<STR_LIT:test>	0
<STR_LIT:test/unit>	0
<STR_LIT:test1>	0
<STR_LIT:test_helper>	0
<STR_LIT:test_macros.h>	0
<STR_LIT:testing>	0
<STR_LIT:text>	0
<STR_LIT:text/html>	0
<STR_LIT:text/plain>	0
<STR_LIT:textU+0020fileU+0020busy>	0
<STR_LIT:time>	0
<STR_LIT:title>	0
<STR_LIT:to>	0
<STR_LIT:toggle>	0
<STR_LIT:token>	0
<STR_LIT:tooU+0020manyU+0020links>	0
<STR_LIT:tooU+0020manyU+0020openU+0020files>	0
<STR_LIT:tooU+0020manyU+0020users>	0
<STR_LIT:toolbar>	0
<STR_LIT:top>	0
<STR_LIT:trace.h>	0
<STR_LIT:train>	0
<STR_LIT:true>	0
<STR_LIT:two>	0
<STR_LIT:tx>	0
<STR_LIT:type>	0
<STR_LIT:typescript>	0
<STR_LIT:u>	0
<STR_LIT:uart1>	0
<STR_LIT:uid>	0
<STR_LIT:uint256>	0
<STR_LIT:unchecked>	0
<STR_LIT:undefined>	0
<STR_LIT:unexpectedU+0020error:U+0020%v>	0
<STR_LIT:unfinished>	0
<STR_LIT:unicode/utf8>	0
<STR_LIT:unicode/utypes.h>	0
<STR_LIT:unknown>	0
<STR_LIT:unreachable>	0
<STR_LIT:unsafe>	0
<STR_LIT:unused>	0
<STR_LIT:updated_at>	0
<STR_LIT:uri>	0
<STR_LIT:url>	0
<STR_LIT:useU+0020strict>	0
<STR_LIT:user>	0
<STR_LIT:user32.dll>	0
<STR_LIT:userId>	0
<STR_LIT:user_id>	0
<STR_LIT:username>	0
<STR_LIT:users>	0
<STR_LIT:utf-8>	0
<STR_LIT:utf8>	0
<STR_LIT:util.h>	0
<STR_LIT:v>	0
<STR_LIT:v1>	0
<STR_LIT:value>	0
<STR_LIT:value1>	0
<STR_LIT:version>	0
<STR_LIT:view>	0
<STR_LIT:vs/base/common/lifecycle>	0
<STR_LIT:vs/base/common/uri>	0
<STR_LIT:vs/nls>	0
<STR_LIT:vscode>	0
<STR_LIT:w>	0
<STR_LIT:watchdog>	0
<STR_LIT:wb>	0
<STR_LIT:wide>	0
<STR_LIT:width>	0
<STR_LIT:win>	0
<STR_LIT:win32>	0
<STR_LIT:win7-x86>	0
<STR_LIT:windows>	0
<STR_LIT:write>	0
<STR_LIT:x>	0
<STR_LIT:x-ms-client-request-id>	0
<STR_LIT:x-ms-request-id>	0
<STR_LIT:x86>	0
<STR_LIT:x86-32>	0
<STR_LIT:x86-64>	0
<STR_LIT:x86-protected-32>	0
<STR_LIT:x86_32>	0
<STR_LIT:x86_64>	0
<STR_LIT:x86_64-nacl>	0
<STR_LIT:x86_amd64>	0
<STR_LIT:y>	0
<STR_LIT:yes>	0
<STR_LIT:z>	0
<STR_LIT:{>	0
<STR_LIT:{0:G}U+002CU+0020{1}:U+0020{2}>	0
<STR_LIT:{0}>	0
<STR_LIT:{\n>	0
<STR_LIT:{}>	0
<STR_LIT:|>	0
<STR_LIT:}>	0
<STR_LIT:}U+0020>	0
<STR_LIT:}\n>	0
<CHAR_LIT:">	0
<CHAR_LIT:(>	0
<CHAR_LIT:)>	0
<CHAR_LIT:*>	0
<CHAR_LIT:+>	0
<CHAR_LIT:->	0
<CHAR_LIT:.>	0
<CHAR_LIT:/>	0
<CHAR_LIT:0>	0
<CHAR_LIT:1>	0
<CHAR_LIT:9>	0
<CHAR_LIT::>	0
<CHAR_LIT:;>	0
<CHAR_LIT:=>	0
<CHAR_LIT:>>	0
<CHAR_LIT:A>	0
<CHAR_LIT:C>	0
<CHAR_LIT:S>	0
<CHAR_LIT:U+0020>	0
<CHAR_LIT:U+002C>	0
<CHAR_LIT:Z>	0
<CHAR_LIT:[>	0
<CHAR_LIT:\'>	0
<CHAR_LIT:\0>	0
<CHAR_LIT:\\>	0
<CHAR_LIT:\n>	0
<CHAR_LIT:\r>	0
<CHAR_LIT:\t>	0
<CHAR_LIT:\x2>	0
<CHAR_LIT:]>	0
<CHAR_LIT:_>	0
<CHAR_LIT:a>	0
<CHAR_LIT:b>	0
<CHAR_LIT:c>	0
<CHAR_LIT:d>	0
<CHAR_LIT:e>	0
<CHAR_LIT:f>	0
<CHAR_LIT:i>	0
<CHAR_LIT:l>	0
<CHAR_LIT:n>	0
<CHAR_LIT:o>	0
<CHAR_LIT:r>	0
<CHAR_LIT:s>	0
<CHAR_LIT:t>	0
<CHAR_LIT:x>	0
<CHAR_LIT:|>	0
<CHAR_LIT:}>	0
<REGEX_LIT:">	0
<REGEX_LIT:#>	0
<REGEX_LIT:#.*$>	0
<REGEX_LIT:%20>	0
<REGEX_LIT:&>	0
<REGEX_LIT:'>	0
<REGEX_LIT:(=)\?(?=&|$)|\?\?>	0
<REGEX_LIT:([?&])_=[^&]*>	0
<REGEX_LIT:([A-Z])>	0
<REGEX_LIT:.*(?=#[^\s]*$)>	0
<REGEX_LIT:.*(?=#[^\s]+$)>	0
<REGEX_LIT:<>	0
<REGEX_LIT:<([\w:]+)>	0
<REGEX_LIT:<|&#?\w+;>	0
<REGEX_LIT:>>	0
<REGEX_LIT:\.>	0
<REGEX_LIT:\.js$>	0
<REGEX_LIT:\?>	0
<REGEX_LIT:\D>	0
<REGEX_LIT:\S>	0
<REGEX_LIT:\S+>	0
<REGEX_LIT:\W>	0
<REGEX_LIT:\[\]$>	0
<REGEX_LIT:\\>	0
<REGEX_LIT:\d>	0
<REGEX_LIT:\n>	0
<REGEX_LIT:\r>	0
<REGEX_LIT:\r?\n>	0
<REGEX_LIT:\s>	0
<REGEX_LIT:\s+>	0
<REGEX_LIT:\s+$>	0
<REGEX_LIT:\w+>	0
<REGEX_LIT:^$|\/(?:java|ecma)script>	0
<REGEX_LIT:^(?:GET|HEAD)$>	0
<REGEX_LIT:^(?:checkbox|radio)$>	0
<REGEX_LIT:^(?:toggle|show|hide)$>	0
<REGEX_LIT:^-ms->	0
<REGEX_LIT:^\/\/>	0
<REGEX_LIT:^\s*>	0
<REGEX_LIT:^\s+>	0
<REGEX_LIT:^\s+|\s+$>	0
<REGEX_LIT:^h\d$>	0
<REGEX_LIT:^key>	0
<REGEX_LIT:^margin>	0
<REGEX_LIT:^true\/(.*)>	0
<REGEX_LIT:input|textarea>	0
<REGEX_LIT:json>	0
<REGEX_LIT:queueHooks$>	0
▁=	-0
in	-1
re	-2
er	-3
st	-4
);	-5
on	-6
at	-7
de	-8
se	-9
en	-10
ct	-11
or	-12
▁(	-13
ar	-14
▁{	-15
al	-16
->	-17
le	-18
if	-19
ur	-20
ion	-21
th	-22
un	-23
is	-24
ret	-25
te	-26
et	-27
int	-28
ic	-29
me	-30
tr	-31
urn	-32
an	-33
return	-34
ro	-35
",	-36
▁"	-37
ch	-38
it	-39
▁*	-40
str	-41
id	-42
ad	-43
()	-44
lo	-45
pe	-46
ue	-47
ss	-48
▁f	-49
this	-50
ing	-51
ce	-52
▁n	-53
ate	-54
ent	-55
co	-56
▁'	-57
mp	-58
con	-59
el	-60
ck	-61
get	-62
ction	-63
ut	-64
la	-65
ame	-66
',	-67
ig	-68
ma	-69
ul	-70
▁s	-71
il	-72
ri	-73
▁&	-74
ed	-75
to	-76
▁p	-77
ex	-78
ype	-79
uct	-80
dev	-81
▁<	-82
struct	-83
err	-84
▁+	-85
("	-86
),	-87
set	-88
pt	-89
ata	-90
ge	-91
unction	-92
ol	-93
In	-94
ode	-95
stat	-96
iz	-97
var	-98
us	-99
},	-100
Re	-101
ort	-102
val	-103
ew	-104
▁i	-105
ub	-106
▁c	-107
))	-108
▁==	-109
ase	-110
ra	-111
IN	-112
um	-113
bu	-114
ize	-115
def	-116
ER	-117
();	-118
ist	-119
cl	-120
data	-121
RE	-122
▁:	-123
ab	-124
type	-125
len	-126
res	-127
▁!	-128
('	-129
end	-130
as	-131
▁b	-132
▁S	-133
▁$	-134
for	-135
ff	-136
▁int	-137
static	-138
vo	-139
ap	-140
am	-141
IT	-142
ine	-143
ert	-144
▁m	-145
ile	-146
pa	-147
fo	-148
lic	-149
▁o	-150
ve	-151
sel	-152
up	-153
void	-154
sc	-155
__	-156
ult	-157
▁d	-158
▁-	-159
self	-160
add	-161
▁|	-162
else	-163
pro	-164
Con	-165
nt	-166
::	-167
▁!=	-168
gs	-169
ption	-170
],	-171
ir	-172
name	-173
qu	-174
ST	-175
and	-176
od	-177
ON	-178
NU	-179
AT	-180
▁err	-181
":	-182
lock	-183
able	-184
ver	-185
ect	-186
bj	-187
ation	-188
St	-189
32	-190
ey	-191
▁t	-192
xt	-193
");	-194
ublic	-195
function	-196
DE	-197
ment	-198
op	-199
▁function	-200
ext	-201
public	-202
ull	-203
));	-204
LL	-205
ow	-206
▁in	-207
EN	-208
ot	-209
age	-210
value	-211
▁[	-212
const	-213
tring	-214
▁re	-215
case	-216
ign	-217
art	-218
ice	-219
all	-220
▁=>	-221
ath	-222
De	-223
ime	-224
};	-225
AR	-226
▁e	-227
OR	-228
ter	-229
out	-230
io	-231
▁&&	-232
(&	-233
▁C	-234
▁u	-235
▁l	-236
sp	-237
Name	-238
Type	-239
ak	-240
ip	-241
lass	-242
MA	-243
▁r	-244
put	-245
▁new	-246
ude	-247
text	-248
unc	-249
▁a	-250
of	-251
).	-252
▁>	-253
im	-254
▁P	-255
clude	-256
riv	-257
size	-258
ack	-259
];	-260
Ex	-261
dex	-262
string	-263
unt	-264
gth	-265
SE	-266
LE	-267
▁this	-268
mport	-269
pr	-270
alse	-271
os	-272
▁h	-273
include	-274
▁T	-275
Co	-276
){	-277
rr	-278
ind	-279
reg	-280
ray	-281
++	-282
sh	-283
port	-284
($	-285
que	-286
priv	-287
String	-288
Val	-289
▁_	-290
AL	-291
Err	-292
▁(!	-293
▁tr	-294
che	-295
nd	-296
LIT	-297
key	-298
▁:=	-299
ht	-300
uns	-301
reak	-302
vent	-303
ass	-304
par	-305
info	-306
Pro	-307
bject	-308
ers	-309
ID	-310
▁void	-311
map	-312
NULL	-313
func	-314
import	-315
▁M	-316
char	-317
rent	-318
length	-319
our	-320
oc	-321
rite	-322
he	-323
yte	-324
buf	-325
test	-326
._	-327
ire	-328
].	-329
break	-330
▁A	-331
▁co	-332
▁else	-333
read	-334
ta	-335
▁w	-336
state	-337
▁||	-338
CT	-339
lement	-340
igned	-341
ource	-342
ser	-343
ms	-344
▁)	-345
fa	-346
sk	-347
SI	-348
")	-349
fig	-350
To	-351
mat	-352
▁null	-353
mm	-354
▁true	-355
▁false	-356
mo	-357
Value	-358
assert	-359
['	-360
▁NULL	-361
cp	-362
CH	-363
one	-364
init	-365
▁v	-366
unsigned	-367
64	-368
0_	-369
bo	-370
ptions	-371
ule	-372
List	-373
new	-374
ild	-375
row	-376
define	-377
ME	-378
')	-379
es	-380
ph	-381
loc	-382
rom	-383
▁F	-384
▁N	-385
▁g	-386
ight	-387
ptr	-388
ord	-389
result	-390
try	-391
});	-392
rc	-393
▁ar	-394
CE	-395
addr	-396
▁I	-397
▁struct	-398
):	-399
print	-400
li	-401
▁uint	-402
device	-403
ree	-404
AD	-405
em	-406
▁B	-407
lags	-408
ffset	-409
TR	-410
Data	-411
quest	-412
2_	-413
▁get	-414
","	-415
Error	-416
est	-417
act	-418
ag	-419
1_	-420
');	-421
per	-422
oint	-423
Ch	-424
attr	-425
eld	-426
':	-427
write	-428
AN	-429
pl	-430
ity	-431
ix	-432
cur	-433
code	-434
▁nil	-435
ield	-436
▁j	-437
start	-438
md	-439
go	-440
lin	-441
pre	-442
qual	-443
OC	-444
file	-445
▁D	-446
ial	-447
▁__	-448
ffer	-449
']	-450
ong	-451
Ar	-452
ance	-453
ost	-454
Object	-455
reate	-456
list	-457
Se	-458
▁?	-459
PE	-460
16	-461
&&	-462
";	-463
node	-464
Id	-465
Get	-466
ator	-467
num	-468
▁x	-469
om	-470
NUM	-471
av	-472
SY	-473
ssage	-474
lay	-475
ET	-476
max	-477
▁},	-478
ure	-479
ange	-480
pc	-481
atch	-482
ive	-483
SS	-484
▁if	-485
RO	-486
ans	-487
▁);	-488
▁<<	-489
UN	-490
FI	-491
▁+=	-492
fe	-493
Set	-494
ader	-495
▁con	-496
==	-497
tem	-498
ream	-499
▁}	-500
Lo	-501
(),	-502
sy	-503
ument	-504
▁size	-505
EX	-506
byte	-507
app	-508
fs	-509
inal	-510
ll	-511
line	-512
dr	-513
private	-514
log	-515
▁((	-516
00	-517
lect	-518
[]	-519
mem	-520
UT	-521
IP	-522
US	-523
index	-524
class	-525
At	-526
be	-527
▁self	-528
ute	-529
CO	-530
status	-531
und	-532
ception	-533
ux	-534
ay	-535
ib	-536
mode	-537
path	-538
:"	-539
cess	-540
back	-541
IO	-542
().	-543
no	-544
odule	-545
col	-546
';	-547
())	-548
base	-549
quire	-550
ken	-551
Ad	-552
Node	-553
proto	-554
Key	-555
Me	-556
date	-557
ERR	-558
ca	-559
LA	-560
pert	-561
di	-562
▁const	-563
Bu	-564
count	-565
▁string	-566
INT	-567
ctx	-568
iew	-569
error	-570
Par	-571
pect	-572
▁R	-573
Res	-574
idth	-575
ory	-576
ac	-577
▁error	-578
En	-579
ler	-580
ener	-581
((	-582
▁/	-583
Un	-584
arget	-585
ies	-586
":"	-587
MO	-588
param	-589
IF	-590
Exception	-591
ault	-592
ition	-593
comp	-594
ard	-595
▁===	-596
arg	-597
▁is	-598
mt	-599
For	-600
use	-601
());	-602
▁.	-603
desc	-604
Info	-605
Col	-606
IS	-607
default	-608
roup	-609
ush	-610
rame	-611
++)	-612
form	-613
sion	-614
MP	-615
ps	-616
▁G	-617
vice	-618
OP	-619
Time	-620
sw	-621
ang	-622
irq	-623
Size	-624
do	-625
▁k	-626
pos	-627
Element	-628
File	-629
▁char	-630
Index	-631
nc	-632
time	-633
ED	-634
ty	-635
▁st	-636
REG	-637
LO	-638
ibu	-639
config	-640
goto	-641
ok	-642
ibute	-643
sub	-644
Ser	-645
iter	-646
Event	-647
])	-648
ole	-649
ide	-650
TI	-651
move	-652
Test	-653
▁value	-654
call	-655
red	-656
▁ret	-657
ger	-658
ool	-659
:0	-660
has	-661
ber	-662
ref	-663
ock	-664
ork	-665
State	-666
buffer	-667
old	-668
stance	-669
="	-670
CON	-671
free	-672
options	-673
mb	-674
req	-675
flags	-676
▁static	-677
BU	-678
ith	-679
ep	-680
▁len	-681
ery	-682
uint	-683
Class	-684
ress	-685
linux	-686
trol	-687
thod	-688
Equal	-689
Tr	-690
event	-691
]);	-692
expect	-693
▁H	-694
▁return	-695
user	-696
onse	-697
SET	-698
dis	-699
sa	-700
TY	-701
ient	-702
create	-703
AP	-704
▁data	-705
ml	-706
SYS	-707
hw	-708
▁to	-709
offset	-710
pace	-711
AC	-712
Text	-713
yle	-714
▁or	-715
3_	-716
db	-717
Comp	-718
▁long	-719
ann	-720
Int	-721
low	-722
He	-723
perty	-724
ax	-725
ach	-726
▁se	-727
min	-728
throw	-729
face	-730
Map	-731
▁de	-732
fil	-733
UR	-734
1,	-735
Point	-736
bit	-737
ne	-738
rl	-739
mask	-740
cmd	-741
andle	-742
net	-743
▁[]	-744
load	-745
||	-746
Context	-747
pack	-748
next	-749
tx	-750
Array	-751
▁V	-752
Mode	-753
cs	-754
ft	-755
SC	-756
loat	-757
ted	-758
ZE	-759
▁L	-760
STAT	-761
tent	-762
ant	-763
32_	-764
own	-765
check	-766
ins	-767
endif	-768
prototype	-769
stem	-770
VAL	-771
OL	-772
page	-773
temp	-774
wh	-775
Sy	-776
▁E	-777
IC	-778
▁pro	-779
rt	-780
Code	-781
from	-782
ec	-783
})	-784
NO	-785
lab	-786
▁String	-787
mage	-788
▁*)	-789
ING	-790
msg	-791
ren	-792
DR	-793
bug	-794
valid	-795
append	-796
null	-797
Reg	-798
▁name	-799
ssion	-800
module	-801
ORT	-802
array	-803
SIZE	-804
indow	-805
ript	-806
Path	-807
ask	-808
TYPE	-809
4_	-810
export	-811
pp	-812
itch	-813
▁O	-814
inter	-815
entry	-816
SH	-817
"),	-818
""	-819
LT	-820
▁test	-821
cpu	-822
▁W	-823
table	-824
▁type	-825
ister	-826
GE	-827
Request	-828
▁out	-829
Attr	-830
▁y	-831
"""	-832
push	-833
dir	-834
["	-835
lace	-836
Config	-837
▁>=	-838
MAX	-839
▁ch	-840
printf	-841
Field	-842
obj	-843
UP	-844
client	-845
▁par	-846
▁sizeof	-847
input	-848
ci	-849
Len	-850
▁set	-851
raw	-852
Sh	-853
TE	-854
message	-855
space	-856
▁uintptr	-857
work	-858
ore	-859
tp	-860
ns	-861
ry	-862
Param	-863
Sc	-864
apt	-865
alloc	-866
sg	-867
AB	-868
mple	-869
andler	-870
resp	-871
dma	-872
Of	-873
last	-874
block	-875
SK	-876
ust	-877
IR	-878
args	-879
Stat	-880
8_	-881
(){	-882
EL	-883
context	-884
Qu	-885
▁,	-886
og	-887
ings	-888
lete	-889
request	-890
ly	-891
>,	-892
pi	-893
parent	-894
SP	-895
,"	-896
iv	-897
util	-898
remove	-899
clk	-900
▁|=	-901
ite	-902
late	-903
CL	-904
element	-905
FA	-906
stream	-907
ava	-908
▁array	-909
:'	-910
comm	-911
Add	-912
fd	-913
lob	-914
ke	-915
.$	-916
ary	-917
▁\	-918
Message	-919
current	-920
url	-921
ocument	-922
▁0	-923
RA	-924
ined	-925
DEV	-926
6_	-927
switch	-928
"},	-929
place	-930
lection	-931
TH	-932
lose	-933
▁Sy	-934
Inter	-935
Num	-936
queue	-937
annel	-938
(*	-939
10	-940
ENT	-941
▁>>	-942
tain	-943
cle	-944
PC	-945
12	-946
update	-947
({	-948
▁sy	-949
ud	-950
▁org	-951
UE	-952
py	-953
object	-954
wa	-955
vel	-956
▁()	-957
5_	-958
>/	-959
▁str	-960
ION	-961
View	-962
ops	-963
pec	-964
▁require	-965
bl	-966
▁U	-967
▁($	-968
trans	-969
idx	-970
▁class	-971
KE	-972
FF	-973
▁ex	-974
apter	-975
main	-976
CHAR	-977
lient	-978
scall	-979
usb	-980
while	-981
ifi	-982
irst	-983
MD	-984
ick	-985
rx	-986
PRO	-987
0,	-988
'),	-989
RT	-990
(_	-991
point	-992
▁result	-993
Count	-994
skb	-995
ton	-996
▁sh	-997
PORT	-998
tmp	-999
TO	-1000
Item	-1001
1.	-1002
ody	-1003
conn	-1004
std	-1005
width	-1006
Bo	-1007
PR	-1008
format	-1009
▁key	-1010
emp	-1011
Log	-1012
IG	-1013
frame	-1014
host	-1015
link	-1016
▁un	-1017
++;	-1018
parse	-1019
DAT	-1020
Attribute	-1021
uble	-1022
src	-1023
▁final	-1024
dent	-1025
field	-1026
Th	-1027
defined	-1028
Pos	-1029
tra	-1030
params	-1031
VER	-1032
ise	-1033
equal	-1034
match	-1035
ride	-1036
target	-1037
verride	-1038
enable	-1039
Up	-1040
tect	-1041
tin	-1042
Property	-1043
onent	-1044
anag	-1045
eta	-1046
2,	-1047
river	-1048
gp	-1049
,-	-1050
arch	-1051
Line	-1052
][	-1053
word	-1054
Out	-1055
Le	-1056
cod	-1057
exports	-1058
local	-1059
play	-1060
chip	-1061
ast	-1062
olean	-1063
fn	-1064
son	-1065
tainer	-1066
let	-1067
uth	-1068
ug	-1069
MS	-1070
OCK	-1071
utex	-1072
pen	-1073
head	-1074
register	-1075
Desc	-1076
Service	-1077
ont	-1078
nal	-1079
▁flags	-1080
ark	-1081
unlock	-1082
ie	-1083
group	-1084
gr	-1085
debug	-1086
▁arg	-1087
spin	-1088
ERN	-1089
▁J	-1090
32(	-1091
ache	-1092
item	-1093
cf	-1094
Is	-1095
MASK	-1096
(!	-1097
resource	-1098
{"	-1099
BUG	-1100
method	-1101
Loc	-1102
02	-1103
sup	-1104
eb	-1105
ctrl	-1106
CP	-1107
Pointer	-1108
anager	-1109
INVAL	-1110
ash	-1111
From	-1112
Result	-1113
ify	-1114
CA	-1115
ply	-1116
Buffer	-1117
▁bool	-1118
phy	-1119
NA	-1120
▁do	-1121
▁X	-1122
bool	-1123
Str	-1124
CR	-1125
core	-1126
ated	-1127
▁q	-1128
opt	-1129
version	-1130
Or	-1131
utton	-1132
▁as	-1133
ject	-1134
action	-1135
GP	-1136
)),	-1137
FO	-1138
Be	-1139
Resp	-1140
vm	-1141
Status	-1142
GET	-1143
▁reg	-1144
jo	-1145
top	-1146
control	-1147
PO	-1148
token	-1149
assertEqual	-1150
ABLE	-1151
)))	-1152
Call	-1153
ds	-1154
Block	-1155
=>	-1156
umn	-1157
Stream	-1158
extend	-1159
ERROR	-1160
DU	-1161
▁<=	-1162
handle	-1163
▁val	-1164
▁unsigned	-1165
VE	-1166
find	-1167
expected	-1168
▁!==	-1169
/<	-1170
label	-1171
mutex	-1172
ual	-1173
KEY	-1174
New	-1175
source	-1176
An	-1177
With	-1178
root	-1179
fault	-1180
cache	-1181
MB	-1182
afe	-1183
uto	-1184
regs	-1185
imer	-1186
Byte	-1187
▁dev	-1188
select	-1189
DB	-1190
ls	-1191
query	-1192
cc	-1193
Query	-1194
response	-1195
not	-1196
ift	-1197
1)	-1198
ape	-1199
orm	-1200
Response	-1201
lobal	-1202
Input	-1203
"+	-1204
TA	-1205
ilder	-1206
tinue	-1207
DO	-1208
adapter	-1209
▁file	-1210
▁en	-1211
ale	-1212
left	-1213
til	-1214
its	-1215
By	-1216
tected	-1217
driver	-1218
SU	-1219
ATE	-1220
lat	-1221
lot	-1222
Length	-1223
CK	-1224
tings	-1225
END	-1226
On	-1227
output	-1228
itor	-1229
ML	-1230
itle	-1231
fore	-1232
cb	-1233
Table	-1234
DATA	-1235
Al	-1236
▁options	-1237
replace	-1238
true	-1239
End	-1240
▁%	-1241
▁cur	-1242
ctl	-1243
Token	-1244
LI	-1245
lag	-1246
rec	-1247
WR	-1248
cope	-1249
sb	-1250
gra	-1251
uration	-1252
▁_,	-1253
ctor	-1254
Resource	-1255
are	-1256
child	-1257
div	-1258
▁(*	-1259
Comm	-1260
Default	-1261
ccess	-1262
]=	-1263
Group	-1264
").	-1265
Cur	-1266
▁java	-1267
ain	-1268
Color	-1269
FS	-1270
vert	-1271
KERN	-1272
protected	-1273
ded	-1274
require	-1275
open	-1276
FIG	-1277
'],	-1278
typeof	-1279
PI	-1280
using	-1281
ENO	-1282
ink	-1283
ension	-1284
pdev	-1285
Base	-1286
='	-1287
Client	-1288
▁node	-1289
▁com	-1290
HT	-1291
ee	-1292
▁None	-1293
rag	-1294
EXT	-1295
Child	-1296
style	-1297
64_	-1298
ner	-1299
MU	-1300
MEM	-1301
Ptr	-1302
dest	-1303
▁sc	-1304
Width	-1305
height	-1306
ifdef	-1307
Date	-1308
DEBUG	-1309
▁bo	-1310
Manager	-1311
--	-1312
)(	-1313
2.	-1314
===	-1315
Dis	-1316
pm	-1317
ector	-1318
▁num	-1319
RL	-1320
Format	-1321
▁Q	-1322
wait	-1323
Ass	-1324
▁index	-1325
view	-1326
DI	-1327
Read	-1328
▁max	-1329
OUT	-1330
Start	-1331
Model	-1332
sd	-1333
rap	-1334
ower	-1335
Source	-1336
Override	-1337
MODE	-1338
final	-1339
package	-1340
hdr	-1341
&&(	-1342
Options	-1343
Trans	-1344
pci	-1345
Not	-1346
unsafe	-1347
filter	-1348
CI	-1349
store	-1350
uments	-1351
continue	-1352
MI	-1353
card	-1354
sor	-1355
LIN	-1356
Util	-1357
▁snd	-1358
PH	-1359
close	-1360
bus	-1361
_1	-1362
Ref	-1363
Offset	-1364
header	-1365
Fil	-1366
lem	-1367
ICE	-1368
▁ma	-1369
'>	-1370
▁z	-1371
▁net	-1372
attribute	-1373
hash	-1374
mod	-1375
channel	-1376
igh	-1377
▁buf	-1378
PA	-1379
wr	-1380
Control	-1381
roll	-1382
').	-1383
Ext	-1384
_2	-1385
SR	-1386
▁id	-1387
order	-1388
xx	-1389
irect	-1390
Method	-1391
▁;	-1392
NAME	-1393
cm	-1394
ther	-1395
float	-1396
lice	-1397
printk	-1398
Pa	-1399
"))	-1400
sm	-1401
level	-1402
PIN	-1403
ART	-1404
si	-1405
api	-1406
Sub	-1407
false	-1408
ations	-1409
send	-1410
ersion	-1411
Instance	-1412
▁end	-1413
Lay	-1414
ern	-1415
▁res	-1416
BO	-1417
Case	-1418
da	-1419
Handler	-1420
Content	-1421
Var	-1422
▁time	-1423
CTRL	-1424
Style	-1425
rence	-1426
"]	-1427
pu	-1428
sys	-1429
ACK	-1430
','	-1431
unk	-1432
rq	-1433
tag	-1434
fix	-1435
FLA	-1436
Select	-1437
IL	-1438
READ	-1439
IFT	-1440
enu	-1441
vid	-1442
▁state	-1443
box	-1444
sync	-1445
Char	-1446
br	-1447
▁sk	-1448
first	-1449
fl	-1450
mit	-1451
EINVAL	-1452
▁start	-1453
▁map	-1454
php	-1455
ITE	-1456
▁count	-1457
sizeof	-1458
ference	-1459
▁['	-1460
Function	-1461
Version	-1462
11	-1463
SO	-1464
▁System	-1465
content	-1466
)}	-1467
ng	-1468
Frame	-1469
untime	-1470
ake	-1471
▁offset	-1472
inode	-1473
BIT	-1474
ONE	-1475
bytes	-1476
<?	-1477
nection	-1478
long	-1479
arn	-1480
25	-1481
ume	-1482
ail	-1483
16_	-1484
dst	-1485
show	-1486
bits	-1487
model	-1488
rate	-1489
DULE	-1490
AS	-1491
off	-1492
▁~	-1493
ched	-1494
STR	-1495
ob	-1496
ump	-1497
ics	-1498
atter	-1499
led	-1500
riptor	-1501
iff	-1502
copy	-1503
color	-1504
▁not	-1505
rint	-1506
stats	-1507
>(	-1508
ative	-1509
cfg	-1510
App	-1511
ui	-1512
cd	-1513
ifier	-1514
Header	-1515
Number	-1516
▁for	-1517
USB	-1518
={	-1519
▁list	-1520
▁th	-1521
True	-1522
ription	-1523
MODULE	-1524
mbol	-1525
Pre	-1526
ts	-1527
Gener	-1528
env	-1529
lit	-1530
ename	-1531
lang	-1532
Arg	-1533
▁lo	-1534
Write	-1535
▁Get	-1536
▁obj	-1537
User	-1538
enc	-1539
teger	-1540
FP	-1541
MT	-1542
gpio	-1543
▁import	-1544
ACE	-1545
cond	-1546
bind	-1547
ound	-1548
heck	-1549
▁range	-1550
+"	-1551
Action	-1552
sock	-1553
->_	-1554
sed	-1555
clear	-1556
▁from	-1557
address	-1558
SD	-1559
Height	-1560
INFO	-1561
mac	-1562
uid	-1563
$.	-1564
"],	-1565
coder	-1566
run	-1567
▁args	-1568
DEVICE	-1569
Image	-1570
18	-1571
lease	-1572
process	-1573
imit	-1574
dec	-1575
Def	-1576
dm	-1577
pol	-1578
▁param	-1579
cap	-1580
System	-1581
7_	-1582
ia	-1583
PER	-1584
exp	-1585
exit	-1586
MAP	-1587
Fact	-1588
▁col	-1589
▁++	-1590
window	-1591
▁syscall	-1592
TX	-1593
Init	-1594
▁path	-1595
11_	-1596
assertEquals	-1597
Oper	-1598
BL	-1599
ature	-1600
FLAG	-1601
Listener	-1602
ave	-1603
server	-1604
ql	-1605
▁he	-1606
SA	-1607
aw	-1608
ible	-1609
ULT	-1610
All	-1611
bt	-1612
▁and	-1613
idget	-1614
▁cl	-1615
part	-1616
each	-1617
rm	-1618
Window	-1619
)->	-1620
FT	-1621
join	-1622
range	-1623
body	-1624
image	-1625
Paramet	-1626
cons	-1627
▁tmp	-1628
BA	-1629
leg	-1630
CTL	-1631
mark	-1632
ERT	-1633
▁base	-1634
chan	-1635
▁device	-1636
:[	-1637
Create	-1638
reset	-1639
ized	-1640
▁context	-1641
ring	-1642
CTION	-1643
Assert	-1644
seq	-1645
Tag	-1646
Check	-1647
round	-1648
callback	-1649
fb	-1650
[$	-1651
pan	-1652
"));	-1653
fmt	-1654
ATTR	-1655
STATUS	-1656
_,	-1657
13	-1658
arsh	-1659
Entry	-1660
tal	-1661
namespace	-1662
OK	-1663
Builder	-1664
PF	-1665
instance	-1666
asm	-1667
▁read	-1668
timer	-1669
▁pos	-1670
abel	-1671
FAULT	-1672
save	-1673
apply	-1674
cpy	-1675
mpl	-1676
rop	-1677
document	-1678
Tra	-1679
LOG	-1680
Page	-1681
Valid	-1682
NT	-1683
split	-1684
double	-1685
ict	-1686
Ed	-1687
cept	-1688
fc	-1689
▁line	-1690
▁src	-1691
done	-1692
del	-1693
Target	-1694
PAR	-1695
([	-1696
NE	-1697
▁instance	-1698
MC	-1699
sign	-1700
drv	-1701
LEN	-1702
buff	-1703
Command	-1704
ttp	-1705
Component	-1706
com	-1707
pend	-1708
elper	-1709
exec	-1710
None	-1711
64(	-1712
ific	-1713
EV	-1714
Range	-1715
ld	-1716
sta	-1717
CHE	-1718
CLK	-1719
delete	-1720
lib	-1721
active	-1722
vis	-1723
ence	-1724
perties	-1725
OFF	-1726
fp	-1727
cr	-1728
Mem	-1729
Rec	-1730
vol	-1731
▁throw	-1732
extends	-1733
AND	-1734
▁mode	-1735
dbg	-1736
Position	-1737
CMD	-1738
Interface	-1739
ND	-1740
pression	-1741
prev	-1742
▁AR	-1743
▁io	-1744
SION	-1745
gin	-1746
Update	-1747
Filter	-1748
tl	-1749
▁event	-1750
Output	-1751
chema	-1752
802	-1753
command	-1754
cnt	-1755
00_	-1756
layer	-1757
Per	-1758
my	-1759
post	-1760
template	-1761
sum	-1762
▁opt	-1763
▁&=	-1764
stop	-1765
AM	-1766
▁In	-1767
disable	-1768
mpty	-1769
▁byte	-1770
ill	-1771
enum	-1772
cast	-1773
(/<	-1774
Math	-1775
IE	-1776
stack	-1777
pth	-1778
▁Ar	-1779
Max	-1780
spec	-1781
dd	-1782
mon	-1783
auto	-1784
'))	-1785
irt	-1786
build	-1787
plat	-1788
CF	-1789
ev	-1790
Act	-1791
▁call	-1792
Button	-1793
▁inter	-1794
handler	-1795
ustom	-1796
reen	-1797
Ro	-1798
empty	-1799
her	-1800
STATE	-1801
Label	-1802
gl	-1803
Row	-1804
task	-1805
Do	-1806
down	-1807
TIME	-1808
Proto	-1809
ormal	-1810
()->	-1811
pk	-1812
SON	-1813
region	-1814
▁extends	-1815
Exp	-1816
af	-1817
tom	-1818
HE	-1819
And	-1820
Mat	-1821
Types	-1822
▁al	-1823
ASS	-1824
▁CON	-1825
</	-1826
.__	-1827
▁msg	-1828
{}	-1829
▁boolean	-1830
uld	-1831
ETH	-1832
<<	-1833
toString	-1834
sec	-1835
gener	-1836
▁cpu	-1837
▁rc	-1838
URL	-1839
ADDR	-1840
rix	-1841
Rule	-1842
sn	-1843
vider	-1844
No	-1845
Mo	-1846
xy	-1847
INIT	-1848
ical	-1849
with	-1850
▁**	-1851
▁Object	-1852
GPIO	-1853
24	-1854
▁status	-1855
Spec	-1856
riter	-1857
▁errno	-1858
Box	-1859
Factory	-1860
MSG	-1861
ntity	-1862
ould	-1863
super	-1864
cho	-1865
Ret	-1866
Temp	-1867
▁func	-1868
Url	-1869
▁ref	-1870
cal	-1871
REQ	-1872
ugin	-1873
title	-1874
As	-1875
}}	-1876
▁pa	-1877
3,	-1878
▁Re	-1879
ace	-1880
attern	-1881
bar	-1882
Null	-1883
fer	-1884
ear	-1885
DMA	-1886
ero	-1887
nder	-1888
40	-1889
common	-1890
RX	-1891
▁fmt	-1892
den	-1893
IM	-1894
▁config	-1895
session	-1896
Dir	-1897
▁-=	-1898
arshal	-1899
igger	-1900
9_	-1901
Server	-1902
flow	-1903
position	-1904
FOR	-1905
▁Test	-1906
auth	-1907
OF	-1908
resh	-1909
Bytes	-1910
ses	-1911
po	-1912
▁create	-1913
orig	-1914
Address	-1915
adata	-1916
sing	-1917
Obj	-1918
td	-1919
▁comp	-1920
atal	-1921
Cache	-1922
Const	-1923
pd	-1924
mc	-1925
su	-1926
▁ser	-1927
Device	-1928
ateg	-1929
MIN	-1930
ish	-1931
▁};	-1932
ell	-1933
▁sub	-1934
np	-1935
▁on	-1936
▁input	-1937
parser	-1938
lan	-1939
oper	-1940
ample	-1941
Min	-1942
▁target	-1943
Params	-1944
tex	-1945
serial	-1946
nr	-1947
conf	-1948
!==	-1949
roy	-1950
timeout	-1951
by	-1952
WRITE	-1953
izer	-1954
CC	-1955
setup	-1956
DEF	-1957
ORD	-1958
ho	-1959
icy	-1960
interface	-1961
mis	-1962
css	-1963
REE	-1964
CESS	-1965
Met	-1966
0)	-1967
roid	-1968
ped	-1969
▁min	-1970
FUN	-1971
Vector	-1972
atom	-1973
▁{}	-1974
vec	-1975
DIS	-1976
number	-1977
▁info	-1978
property	-1979
release	-1980
PT	-1981
older	-1982
tree	-1983
Container	-1984
medi	-1985
ASSERT	-1986
Pack	-1987
Module	-1988
Bit	-1989
iable	-1990
bs	-1991
global	-1992
▁std	-1993
keys	-1994
cmp	-1995
▁errnoErr	-1996
▁length	-1997
Handle	-1998
yn	-1999
20	-2000
RAY	-2001
thread	-2002
hy	-2003
▁addr	-2004
▁undefined	-2005
OT	-2006
Errorf	-2007
FILE	-2008
ALL	-2009
CONFIG	-2010
▁catch	-2011
values	-2012
connect	-2013
html	-2014
SIG	-2015
platform	-2016
14	-2017
sr	-2018
dt	-2019
▁default	-2020
BE	-2021
abs	-2022
▁instanceof	-2023
day	-2024
fin	-2025
Msg	-2026
option	-2027
pass	-2028
udio	-2029
fail	-2030
CD	-2031
unter	-2032
▁Math	-2033
ping	-2034
100	-2035
COMP	-2036
Sign	-2037
▁next	-2038
TEST	-2039
URE	-2040
__,	-2041
Top	-2042
orage	-2043
codec	-2044
ideo	-2045
GL	-2046
kfree	-2047
WN	-2048
latform	-2049
__(	-2050
▁("	-2051
Descriptor	-2052
vc	-2053
▁K	-2054
">	-2055
Op	-2056
ryp	-2057
ync	-2058
Callback	-2059
ixel	-2060
tach	-2061
>>	-2062
80211_	-2063
CODE	-2064
http	-2065
types	-2066
shift	-2067
▁pre	-2068
flag	-2069
refix	-2070
PRE	-2071
Layout	-2072
CS	-2073
dp	-2074
pri	-2075
15	-2076
XX	-2077
1;	-2078
spi	-2079
IRQ	-2080
Collection	-2081
▁make	-2082
TL	-2083
scope	-2084
prop	-2085
Option	-2086
Column	-2087
▁],	-2088
Timeout	-2089
▁float	-2090
ialog	-2091
▁parse	-2092
ba	-2093
DA	-2094
Hash	-2095
Errno	-2096
!=	-2097
packet	-2098
AGE	-2099
▁text	-2100
orted	-2101
2)	-2102
▁[];	-2103
snd	-2104
Empty	-2105
Stack	-2106
TRACE	-2107
right	-2108
gen	-2109
pcm	-2110
CLA	-2111
QU	-2112
Back	-2113
_8	-2114
doc	-2115
RD	-2116
Next	-2117
▁throws	-2118
Load	-2119
DESC	-2120
wm	-2121
lable	-2122
can	-2123
andom	-2124
goog	-2125
▁current	-2126
Match	-2127
Pol	-2128
Part	-2129
warn	-2130
}},	-2131
MAT	-2132
settings	-2133
tool	-2134
Float	-2135
we	-2136
structor	-2137
ram	-2138
ments	-2139
gine	-2140
ures	-2141
anged	-2142
exist	-2143
raph	-2144
*)	-2145
Level	-2146
ALSE	-2147
memcpy	-2148
istr	-2149
fw	-2150
display	-2151
Vis	-2152
Unit	-2153
50	-2154
2;	-2155
hs	-2156
▁cmd	-2157
internal	-2158
lex	-2159
rtc	-2160
▁Array	-2161
EXPORT	-2162
total	-2163
ENOMEM	-2164
▁request	-2165
vector	-2166
search	-2167
arguments	-2168
tail	-2169
▁usb	-2170
mult	-2171
DEFAULT	-2172
▁Tr	-2173
container	-2174
pop	-2175
sent	-2176
Args	-2177
Sup	-2178
change	-2179
Utils	-2180
der	-2181
cpi	-2182
SHIFT	-2183
ank	-2184
=[	-2185
SUP	-2186
unit	-2187
Change	-2188
lp	-2189
slice	-2190
trace	-2191
False	-2192
insert	-2193
UI	-2194
▁os	-2195
Enable	-2196
WA	-2197
elp	-2198
MAC	-2199
location	-2200
any	-2201
vb	-2202
delay	-2203
)));	-2204
Names	-2205
Su	-2206
▁token	-2207
Run	-2208
2(	-2209
wn	-2210
ved	-2211
▁Z	-2212
▁old	-2213
ches	-2214
console	-2215
_.	-2216
▁element	-2217
opy	-2218
ENABLE	-2219
▁CONFIG	-2220
▁St	-2221
gg	-2222
Parent	-2223
proc	-2224
MBOL	-2225
Current	-2226
raise	-2227
▁]	-2228
enter	-2229
▁Co	-2230
va	-2231
filename	-2232
okup	-2233
probe	-2234
ernel	-2235
opts	-2236
SER	-2237
PUT	-2238
▁item	-2239
met	-2240
▁req	-2241
Constant	-2242
olve	-2243
patch	-2244
▁var	-2245
)},	-2246
coding	-2247
inst	-2248
Func	-2249
Expression	-2250
validate	-2251
rs	-2252
pipe	-2253
SYMBOL	-2254
emit	-2255
PL	-2256
Sock	-2257
▁{};	-2258
89	-2259
CAP	-2260
▁fil	-2261
▁field	-2262
Cl	-2263
():	-2264
▁init	-2265
Link	-2266
Rect	-2267
Body	-2268
Task	-2269
Values	-2270
items	-2271
Iter	-2272
▁ss	-2273
▁break	-2274
▁ad	-2275
trigger	-2276
▁port	-2277
light	-2278
BASE	-2279
Menu	-2280
MM	-2281
CHAN	-2282
slot	-2283
peed	-2284
OS	-2285
Enum	-2286
1);	-2287
tries	-2288
pool	-2289
tems	-2290
iterator	-2291
over	-2292
▁module	-2293
▁append	-2294
Entity	-2295
scroll	-2296
ha	-2297
▁buffer	-2298
Left	-2299
NC	-2300
LINE	-2301
IB	-2302
rb	-2303
Com	-2304
Sto	-2305
tc	-2306
Document	-2307
ua	-2308
16(	-2309
restore	-2310
Access	-2311
▁add	-2312
Lock	-2313
ribe	-2314
EC	-2315
Mod	-2316
=!	-2317
2);	-2318
power	-2319
:{	-2320
▁irq	-2321
urb	-2322
Pl	-2323
indexOf	-2324
clock	-2325
column	-2326
▁ST	-2327
dl	-2328
service	-2329
ution	-2330
Ver	-2331
Record	-2332
rid	-2333
80	-2334
▁Pro	-2335
▁pci	-2336
(__	-2337
NET	-2338
ansp	-2339
▁at	-2340
▁source	-2341
Flags	-2342
domain	-2343
sl	-2344
▁^	-2345
pin	-2346
Auth	-2347
Provider	-2348
GR	-2349
▁De	-2350
▁typeof	-2351
▁defined	-2352
OST	-2353
▁/*	-2354
cat	-2355
Mon	-2356
ATION	-2357
mote	-2358
tm	-2359
fx	-2360
4,	-2361
board	-2362
Process	-2363
upt	-2364
Writer	-2365
)]	-2366
ottom	-2367
button	-2368
1(	-2369
ster	-2370
Open	-2371
ender	-2372
used	-2373
▁parent	-2374
tains	-2375
foreach	-2376
gress	-2377
Close	-2378
web	-2379
hci	-2380
ility	-2381
03	-2382
destroy	-2383
▁me	-2384
writel	-2385
equals	-2386
ATH	-2387
Addr	-2388
LOCK	-2389
rypto	-2390
rer	-2391
freq	-2392
SW	-2393
Parameter	-2394
bp	-2395
▁*/	-2396
▁Error	-2397
tract	-2398
mi	-2399
blk	-2400
▁last	-2401
▁ok	-2402
xml	-2403
wrap	-2404
irection	-2405
]))	-2406
BY	-2407
erge	-2408
qp	-2409
lash	-2410
Kind	-2411
WAR	-2412
ared	-2413
begin	-2414
▁object	-2415
ADD	-2416
Thread	-2417
stract	-2418
rv	-2419
rypt	-2420
Helper	-2421
▁ext	-2422
▁IO	-2423
ITOR	-2424
Port	-2425
AUT	-2426
Ident	-2427
10_	-2428
rad	-2429
tab	-2430
LED	-2431
Ac	-2432
json	-2433
Connection	-2434
▁page	-2435
▁Syscall	-2436
Template	-2437
NS	-2438
VM	-2439
Web	-2440
ices	-2441
}),	-2442
prefix	-2443
[:	-2444
'));	-2445
rtl	-2446
KERNEL	-2447
IVE	-2448
▁ctx	-2449
fr	-2450
Tree	-2451
▁(!(	-2452
Reader	-2453
bi	-2454
NF	-2455
▁callback	-2456
cell	-2457
Nd	-2458
lication	-2459
CHECK	-2460
▁[],	-2461
Net	-2462
EP	-2463
atomic	-2464
Each	-2465
rule	-2466
TION	-2467
seg	-2468
LINK	-2469
utils	-2470
description	-2471
sz	-2472
bh	-2473
▁check	-2474
ln	-2475
pg	-2476
Local	-2477
initial	-2478
dom	-2479
UNT	-2480
chunk	-2481
_3	-2482
curity	-2483
js	-2484
Script	-2485
▁interface	-2486
▁Date	-2487
Configuration	-2488
83	-2489
UD	-2490
pha	-2491
errupt	-2492
ization	-2493
START	-2494
access	-2495
wl	-2496
Settings	-2497
▁log	-2498
▁op	-2499
▁('	-2500
should	-2501
Exec	-2502
▁user	-2503
▁message	-2504
children	-2505
▁act	-2506
ancel	-2507
scale	-2508
make	-2509
(-	-2510
mary	-2511
▁block	-2512
uc	-2513
Que	-2514
▁PCI	-2515
▁url	-2516
IPV	-2517
stamp	-2518
fill	-2519
23	-2520
ek	-2521
pid	-2522
▁List	-2523
uster	-2524
OM	-2525
Register	-2526
tt	-2527
las	-2528
19	-2529
rows	-2530
the	-2531
MUX	-2532
scape	-2533
BPF	-2534
▁/<	-2535
PROTO	-2536
Extension	-2537
Integer	-2538
TP	-2539
LOW	-2540
Store	-2541
04	-2542
▁match	-2543
pb	-2544
▁expected	-2545
Parser	-2546
imple	-2547
mail	-2548
sample	-2549
OFFSET	-2550
DIR	-2551
nown	-2552
Host	-2553
GA	-2554
anch	-2555
▁wh	-2556
tml	-2557
inition	-2558
▁platform	-2559
Parse	-2560
Form	-2561
Mask	-2562
render	-2563
yy	-2564
NOT	-2565
▁proto	-2566
USE	-2567
limit	-2568
uage	-2569
Location	-2570
prom	-2571
props	-2572
enabled	-2573
elem	-2574
DBG	-2575
runtime	-2576
attrs	-2577
Bind	-2578
_0	-2579
Root	-2580
bd	-2581
17	-2582
EVENT	-2583
EDITOR	-2584
CFG	-2585
INE	-2586
Tool	-2587
▁Type	-2588
▁TR	-2589
CM	-2590
dump	-2591
irtual	-2592
Copy	-2593
▁MAX	-2594
Debug	-2595
▁["	-2596
▁be	-2597
..	-2598
memset	-2599
IV	-2600
boolean	-2601
NdEx	-2602
ipher	-2603
▁GFP	-2604
,'	-2605
Pan	-2606
ting	-2607
scan	-2608
▁Set	-2609
LAY	-2610
ivity	-2611
JSON	-2612
names	-2613
Properties	-2614
▁USB	-2615
NONE	-2616
script	-2617
▁no	-2618
'])	-2619
encode	-2620
LIST	-2621
cket	-2622
aint	-2623
SPE	-2624
iled	-2625
pages	-2626
▁double	-2627
VERSION	-2628
ansport	-2629
quence	-2630
soc	-2631
▁inline	-2632
Expr	-2633
AF	-2634
Last	-2635
sig	-2636
dc	-2637
DM	-2638
ES	-2639
dict	-2640
Return	-2641
PHY	-2642
Channel	-2643
irectory	-2644
Dec	-2645
editor	-2646
Session	-2647
iod	-2648
DC	-2649
DRV	-2650
defer	-2651
eek	-2652
▁</	-2653
events	-2654
ids	-2655
component	-2656
ric	-2657
▁dst	-2658
Decl	-2659
▁sock	-2660
API	-2661
ffect	-2662
▁),	-2663
URCE	-2664
duct	-2665
▁document	-2666
inary	-2667
Symbol	-2668
attributes	-2669
▁params	-2670
FL	-2671
ACT	-2672
Impl	-2673
MENT	-2674
nv	-2675
86	-2676
hi	-2677
fi	-2678
ors	-2679
Reference	-2680
Draw	-2681
cx	-2682
▁hi	-2683
TEXT	-2684
entity	-2685
netdev	-2686
▁dis	-2687
DS	-2688
▁idx	-2689
clean	-2690
SOURCE	-2691
font	-2692
drvdata	-2693
HW	-2694
▁$.	-2695
tf	-2696
ground	-2697
▁width	-2698
8(	-2699
report	-2700
draw	-2701
OB	-2702
Print	-2703
Conn	-2704
ities	-2705
Wrap	-2706
],[	-2707
Controller	-2708
pare	-2709
anim	-2710
▁go	-2711
Ins	-2712
▁client	-2713
▁clk	-2714
headers	-2715
WARN	-2716
▁mask	-2717
sched	-2718
fg	-2719
Long	-2720
_4	-2721
Delete	-2722
]),	-2723
Fe	-2724
uction	-2725
▁ip	-2726
angle	-2727
ah	-2728
Struct	-2729
▁temp	-2730
png	-2731
HEAD	-2732
ipe	-2733
leep	-2734
sort	-2735
▁trans	-2736
flush	-2737
--;	-2738
32)	-2739
▁arguments	-2740
lick	-2741
alar	-2742
▁output	-2743
Scope	-2744
here	-2745
...	-2746
ait	-2747
asic	-2748
Down	-2749
argv	-2750
tip	-2751
MAR	-2752
Items	-2753
([]	-2754
okie	-2755
record	-2756
▁opts	-2757
async	-2758
Over	-2759
Cal	-2760
testing	-2761
owner	-2762
PCI	-2763
ification	-2764
tv	-2765
".	-2766
PU	-2767
CONTR	-2768
inc	-2769
▁@	-2770
Widget	-2771
fields	-2772
'];	-2773
alk	-2774
etch	-2775
*(	-2776
Selector	-2777
▁android	-2778
Http	-2779
sql	-2780
bb	-2781
erial	-2782
ws	-2783
▁comm	-2784
TS	-2785
3.	-2786
▁code	-2787
ious	-2788
sens	-2789
pkt	-2790
Meta	-2791
pad	-2792
=(	-2793
Mult	-2794
rect	-2795
Head	-2796
ported	-2797
Queue	-2798
HA	-2799
Bar	-2800
AtA	-2801
connection	-2802
Logger	-2803
▁Exception	-2804
PS	-2805
CCESS	-2806
SYNC	-2807
CLASS	-2808
Del	-2809
shape	-2810
CB	-2811
pay	-2812
uri	-2813
▁True	-2814
WORD	-2815
ware	-2816
]->	-2817
step	-2818
ARD	-2819
IDE	-2820
VALUE	-2821
▁BIT	-2822
Json	-2823
SEL	-2824
Inst	-2825
Bound	-2826
catch	-2827
elif	-2828
xis	-2829
▁INT	-2830
▁False	-2831
Fatal	-2832
▁});	-2833
WIN	-2834
dw	-2835
Py	-2836
ITY	-2837
LAN	-2838
pdata	-2839
▁skb	-2840
mg	-2841
ios	-2842
mux	-2843
ten	-2844
kernel	-2845
Adapter	-2846
gram	-2847
icon	-2848
BLOCK	-2849
full	-2850
Mock	-2851
rdev	-2852
oft	-2853
atile	-2854
DL	-2855
SIOC	-2856
▁unsafe	-2857
Enabled	-2858
layout	-2859
decode	-2860
▁New	-2861
straint	-2862
widget	-2863
FN	-2864
COUNT	-2865
TIM	-2866
retval	-2867
apache	-2868
▁shift	-2869
meta	-2870
files	-2871
Has	-2872
Prefix	-2873
>();	-2874
aml	-2875
Operation	-2876
Elements	-2877
ncy	-2878
HTML	-2879
Anim	-2880
▁OP	-2881
interrupt	-2882
▁TH	-2883
high	-2884
socket	-2885
PM	-2886
▁reflect	-2887
hr	-2888
ority	-2889
derer	-2890
dig	-2891
'.	-2892
Lower	-2893
amil	-2894
:'\	-2895
undle	-2896
pending	-2897
▁Byte	-2898
Search	-2899
atures	-2900
▁local	-2901
graph	-2902
SOC	-2903
Serial	-2904
ategory	-2905
nil	-2906
INVALID	-2907
ular	-2908
FUNCTION	-2909
Selection	-2910
UL	-2911
pll	-2912
regex	-2913
arr	-2914
▁mem	-2915
UID	-2916
▁window	-2917
vas	-2918
dim	-2919
85	-2920
SN	-2921
Order	-2922
Are	-2923
▁(_	-2924
fprintf	-2925
Matrix	-2926
▁ro	-2927
SL	-2928
{},	-2929
UND	-2930
▁resource	-2931
vg	-2932
▁priv	-2933
RC	-2934
annot	-2935
tel	-2936
eq	-2937
Work	-2938
conds	-2939
Core	-2940
rd	-2941
▁has	-2942
Parameters	-2943
IST	-2944
FE	-2945
Own	-2946
builder	-2947
▁$(	-2948
▁tag	-2949
▁np	-2950
▁of	-2951
rowser	-2952
vt	-2953
▁FALSE	-2954
normal	-2955
cn	-2956
AV	-2957
chr	-2958
▁stream	-2959
fter	-2960
▁row	-2961
Argument	-2962
▁?>	-2963
GO	-2964
zone	-2965
ali	-2966
adding	-2967
MARK	-2968
points	-2969
Internal	-2970
SUCCESS	-2971
vs	-2972
Scroll	-2973
Di	-2974
BYTE	-2975
Space	-2976
87	-2977
▁entry	-2978
amily	-2979
Title	-2980
>/,	-2981
Keys	-2982
RESET	-2983
▁el	-2984
One	-2985
)).	-2986
▁child	-2987
menu	-2988
▁REG	-2989
skip	-2990
CKEDITOR	-2991
+=	-2992
CONTROL	-2993
']['	-2994
assertTrue	-2995
mission	-2996
Active	-2997
PAGE	-2998
STRING	-2999
▁IR	-3000
▁format	-3001
▁part	-3002
Env	-3003
clone	-3004
ision	-3005
▁File	-3006
uple	-3007
Right	-3008
Convert	-3009
ified	-3010
Changed	-3011
▁drm	-3012
ifo	-3013
▁height	-3014
Display	-3015
errors	-3016
Nodes	-3017
inner	-3018
Day	-3019
once	-3020
verse	-3021
csi	-3022
'+	-3023
BR	-3024
lines	-3025
Tab	-3026
iler	-3027
Invalid	-3028
▁select	-3029
phys	-3030
Click	-3031
mock	-3032
short	-3033
zero	-3034
depth	-3035
▁other	-3036
Uint	-3037
08	-3038
other	-3039
paramet	-3040
▁ab	-3041
alt	-3042
Policy	-3043
master	-3044
descriptor	-3045
ports	-3046
BUF	-3047
mapping	-3048
Pri	-3049
addClass	-3050
GRO	-3051
▁method	-3052
selected	-3053
Global	-3054
▁sys	-3055
MIT	-3056
drop	-3057
Flag	-3058
Attributes	-3059
INTER	-3060
IX	-3061
)?	-3062
sq	-3063
cursor	-3064
__);	-3065
EQ	-3066
section	-3067
ORY	-3068
TRY	-3069
▁per	-3070
▁ARRAY	-3071
edge	-3072
Graph	-3073
Schema	-3074
▁Bu	-3075
Fields	-3076
uch	-3077
ragment	-3078
complete	-3079
TC	-3080
65	-3081
unregister	-3082
ulator	-3083
umns	-3084
cam	-3085
results	-3086
GEN	-3087
)[	-3088
Require	-3089
▁hash	-3090
resolve	-3091
system	-3092
ene	-3093
argin	-3094
real	-3095
mplement	-3096
▁Un	-3097
video	-3098
second	-3099
loop	-3100
logger	-3101
lasses	-3102
ling	-3103
IGHT	-3104
win	-3105
except	-3106
hp	-3107
Opt	-3108
now	-3109
ONG	-3110
Pass	-3111
Buf	-3112
BUFF	-3113
Mapp	-3114
▁handle	-3115
▁tx	-3116
Storage	-3117
isset	-3118
▁sup	-3119
align	-3120
className	-3121
counter	-3122
irqrestore	-3123
▁response	-3124
gb	-3125
COL	-3126
ready	-3127
)){	-3128
ffix	-3129
orld	-3130
allow	-3131
▁write	-3132
200	-3133
Non	-3134
semb	-3135
▁orig	-3136
Dialog	-3137
eval	-3138
▁it	-3139
so	-3140
ward	-3141
struction	-3142
_(	-3143
TER	-3144
forEach	-3145
▁off	-3146
AG	-3147
Font	-3148
▁fn	-3149
▁le	-3150
dat	-3151
man	-3152
ely	-3153
exists	-3154
ging	-3155
ROM	-3156
rel	-3157
speed	-3158
then	-3159
ason	-3160
nodes	-3161
clip	-3162
ECT	-3163
istry	-3164
GB	-3165
PACK	-3166
month	-3167
▁dir	-3168
era	-3169
TIOC	-3170
xa	-3171
olume	-3172
Definition	-3173
cy	-3174
PATH	-3175
CPU	-3176
First	-3177
nl	-3178
Metadata	-3179
lear	-3180
]],	-3181
:!	-3182
PK	-3183
FAIL	-3184
URI	-3185
Cell	-3186
REC	-3187
▁json	-3188
":{"	-3189
marshal	-3190
Send	-3191
EE	-3192
img	-3193
SSL	-3194
▁dest	-3195
bound	-3196
Iterator	-3197
area	-3198
▁run	-3199
etry	-3200
lap	-3201
sym	-3202
mach	-3203
cls	-3204
ingle	-3205
DLT	-3206
tbl	-3207
track	-3208
ELD	-3209
hide	-3210
Namespace	-3211
TABLE	-3212
Mark	-3213
▁first	-3214
audio	-3215
Ab	-3216
88	-3217
▁{'	-3218
ioc	-3219
NG	-3220
ency	-3221
Short	-3222
▁short	-3223
media	-3224
▁dma	-3225
lower	-3226
PTR	-3227
▁cb	-3228
WER	-3229
SM	-3230
Sk	-3231
resources	-3232
Async	-3233
FRA	-3234
Xml	-3235
Generated	-3236
createElement	-3237
$(	-3238
TAG	-3239
original	-3240
ote	-3241
Description	-3242
hid	-3243
only	-3244
▁host	-3245
FIX	-3246
22	-3247
ident	-3248
RES	-3249
Sync	-3250
channels	-3251
Custom	-3252
El	-3253
▁db	-3254
diff	-3255
ose	-3256
TRAN	-3257
vp	-3258
lik	-3259
dAtA	-3260
▁Y	-3261
Transform	-3262
cover	-3263
gt	-3264
delta	-3265
▁IN	-3266
mx	-3267
▁Se	-3268
LOAD	-3269
Initial	-3270
()).	-3271
']);	-3272
PP	-3273
adow	-3274
symbol	-3275
CALL	-3276
ixed	-3277
lookup	-3278
RM	-3279
mid	-3280
DT	-3281
Cond	-3282
SB	-3283
Variable	-3284
▁mp	-3285
plan	-3286
protocol	-3287
SHA	-3288
USER	-3289
Render	-3290
▁..	-3291
Lang	-3292
au	-3293
Plugin	-3294
mouse	-3295
Before	-3296
istance	-3297
ulate	-3298
Full	-3299
pattern	-3300
FC	-3301
▁prev	-3302
SUB	-3303
15_	-3304
RET	-3305
High	-3306
(<	-3307
kw	-3308
pio	-3309
6,	-3310
▁mo	-3311
▁.=	-3312
▁action	-3313
PRINT	-3314
If	-3315
entries	-3316
ique	-3317
olver	-3318
▁AT	-3319
df	-3320
contains	-3321
PECT	-3322
extension	-3323
tty	-3324
64)	-3325
FORMAT	-3326
lk	-3327
IOC	-3328
▁container	-3329
before	-3330
imal	-3331
attach	-3332
Layer	-3333
Idx	-3334
jQuery	-3335
FromString	-3336
SV	-3337
expr	-3338
likely	-3339
▁http	-3340
Auto	-3341
constructor	-3342
▁TRUE	-3343
aded	-3344
Scale	-3345
alg	-3346
actual	-3347
▁(((	-3348
▁inode	-3349
OD	-3350
posit	-3351
QL	-3352
COM	-3353
ggle	-3354
rf	-3355
found	-3356
Editor	-3357
mmu	-3358
{})	-3359
getName	-3360
random	-3361
▁attr	-3362
5,	-3363
encoder	-3364
BUFFER	-3365
urface	-3366
notify	-3367
▁*,	-3368
fifo	-3369
pixel	-3370
uart	-3371
IGN	-3372
▁label	-3373
▁bytes	-3374
▁$_	-3375
pac	-3376
Pool	-3377
NI	-3378
GROUP	-3379
words	-3380
avax	-3381
Rel	-3382
ynam	-3383
▁KEY	-3384
▁Ch	-3385
iteral	-3386
▁root	-3387
iron	-3388
LY	-3389
stderr	-3390
Api	-3391
curr	-3392
errno	-3393
term	-3394
ords	-3395
▁style	-3396
▁Col	-3397
ai	-3398
▁while	-3399
ags	-3400
Priv	-3401
▁WM	-3402
ates	-3403
wd	-3404
RATE	-3405
()));	-3406
Socket	-3407
32,	-3408
controller	-3409
▁rt	-3410
verify	-3411
LK	-3412
Events	-3413
Sw	-3414
FD	-3415
SUPPORT	-3416
sus	-3417
++]	-3418
IFY	-3419
▁elem	-3420
EXPECT	-3421
zz	-3422
iant	-3423
cipher	-3424
rev	-3425
||(	-3426
Bits	-3427
84	-3428
▁find	-3429
()))	-3430
▁override	-3431
Ste	-3432
FLAGS	-3433
ARG	-3434
},{	-3435
UB	-3436
chain	-3437
eee	-3438
signal	-3439
pf	-3440
force	-3441
Trace	-3442
'>,	-3443
irqsave	-3444
payload	-3445
Ne	-3446
istory	-3447
Sp	-3448
OwnProperty	-3449
irm	-3450
Memory	-3451
Only	-3452
MUL	-3453
Pr	-3454
▁...	-3455
malloc	-3456
boot	-3457
▁Reg	-3458
ilable	-3459
tun	-3460
PLL	-3461
ii	-3462
▁PH	-3463
35	-3464
sensor	-3465
OBJ	-3466
Wh	-3467
Tx	-3468
RIP	-3469
mf	-3470
0000	-3471
▁IRQ	-3472
echo	-3473
▁exp	-3474
axis	-3475
strict	-3476
Protocol	-3477
cheme	-3478
Texture	-3479
PCM	-3480
Rules	-3481
}).	-3482
)&&	-3483
ally	-3484
"===	-3485
google	-3486
?(	-3487
peer	-3488
▁content	-3489
NODE	-3490
kt	-3491
prec	-3492
usage	-3493
oo	-3494
ndef	-3495
gid	-3496
UINT	-3497
mu	-3498
▁frame	-3499
acpi	-3500
▁PAGE	-3501
EM	-3502
Doc	-3503
TCP	-3504
Dest	-3505
iNdEx	-3506
'>;	-3507
After	-3508
ius	-3509
▁point	-3510
Timer	-3511
SEC	-3512
cel	-3513
icode	-3514
,<	-3515
extra	-3516
HAND	-3517
memory	-3518
amp	-3519
soft	-3520
route	-3521
REF	-3522
LOC	-3523
lim	-3524
ometry	-3525
getValue	-3526
prepare	-3527
mr	-3528
pende	-3529
voke	-3530
▁rx	-3531
click	-3532
DOWN	-3533
90	-3534
▁update	-3535
"==	-3536
XML	-3537
icker	-3538
Cert	-3539
BITS	-3540
▁table	-3541
Cursor	-3542
known	-3543
8,	-3544
▁javax	-3545
Month	-3546
▁process	-3547
that	-3548
##	-3549
poll	-3550
6(	-3551
edia	-3552
GER	-3553
crtc	-3554
Panel	-3555
IPPROTO	-3556
engine	-3557
AUTH	-3558
Role	-3559
VT	-3560
▁group	-3561
FIELD	-3562
▁Value	-3563
rp	-3564
pair	-3565
eth	-3566
0;	-3567
Runtime	-3568
grid	-3569
Duration	-3570
cent	-3571
proxy	-3572
iomem	-3573
▁enum	-3574
MOD	-3575
BT	-3576
Src	-3577
ian	-3578
▁Me	-3579
▁doc	-3580
edit	-3581
▁define	-3582
Cmd	-3583
cre	-3584
reser	-3585
lave	-3586
ning	-3587
way	-3588
Signal	-3589
transform	-3590
Lib	-3591
convert	-3592
rintf	-3593
Comment	-3594
▁mod	-3595
▁exports	-3596
Cap	-3597
BACK	-3598
blocks	-3599
FILT	-3600
Fail	-3601
acy	-3602
97	-3603
Edit	-3604
27	-3605
▁ieee	-3606
Cre	-3607
mount	-3608
vision	-3609
typedef	-3610
Selected	-3611
screen	-3612
Job	-3613
Orig	-3614
Track	-3615
concat	-3616
Ge	-3617
CAST	-3618
++){	-3619
▁level	-3620
finish	-3621
erm	-3622
▁my	-3623
Package	-3624
>)	-3625
ENODEV	-3626
selector	-3627
sole	-3628
rpc	-3629
ioctl	-3630
▁GL	-3631
Icon	-3632
Wrapper	-3633
DP	-3634
RF	-3635
Remove	-3636
ens	-3637
Mapping	-3638
DEX	-3639
helper	-3640
?"	-3641
▁AV	-3642
rade	-3643
just	-3644
custom	-3645
FMT	-3646
)*	-3647
scsi	-3648
gent	-3649
▁color	-3650
()),	-3651
▁pack	-3652
ummy	-3653
lc	-3654
ersist	-3655
lers	-3656
gpu	-3657
ifndef	-3658
plit	-3659
success	-3660
Region	-3661
unmap	-3662
_5	-3663
describe	-3664
Interval	-3665
LowerCase	-3666
substream	-3667
merge	-3668
NFTA	-3669
single	-3670
help	-3671
")]	-3672
IFF	-3673
cancel	-3674
exception	-3675
support	-3676
acter	-3677
$_	-3678
▁the	-3679
)+	-3680
▁Par	-3681
ider	-3682
gc	-3683
dential	-3684
Limit	-3685
ynamic	-3686
compat	-3687
bottom	-3688
Marshal	-3689
after	-3690
pository	-3691
SED	-3692
ToString	-3693
▁SN	-3694
cq	-3695
recv	-3696
Volume	-3697
▁bit	-3698
lide	-3699
▁omap	-3700
CAN	-3701
ARRAY	-3702
wake	-3703
schema	-3704
WM	-3705
28	-3706
▁image	-3707
removeClass	-3708
plugin	-3709
Find	-3710
Grid	-3711
oin	-3712
▁left	-3713
properties	-3714
aved	-3715
execute	-3716
RED	-3717
Sprintf	-3718
lua	-3719
ich	-3720
▁ass	-3721
3(	-3722
Double	-3723
amd	-3724
▁Num	-3725
▁te	-3726
tim	-3727
ov	-3728
ById	-3729
wq	-3730
Network	-3731
gn	-3732
▁rec	-3733
avig	-3734
▁iter	-3735
ENDOR	-3736
less	-3737
Project	-3738
legate	-3739
etail	-3740
OPT	-3741
NEL	-3742
bio	-3743
groups	-3744
34	-3745
Tri	-3746
plug	-3747
▁main	-3748
Found	-3749
12_	-3750
Constants	-3751
Application	-3752
bc	-3753
span	-3754
Files	-3755
TestCase	-3756
OW	-3757
icro	-3758
▁task	-3759
UTE	-3760
zalloc	-3761
EOF	-3762
toLowerCase	-3763
fact	-3764
▁IP	-3765
▁yy	-3766
INPUT	-3767
radeon	-3768
iffies	-3769
Packet	-3770
▁nullptr	-3771
serv	-3772
Directory	-3773
Encode	-3774
"},"	-3775
tick	-3776
LEV	-3777
Loader	-3778
Sample	-3779
DEFINE	-3780
watch	-3781
1[	-3782
resume	-3783
lare	-3784
letion	-3785
NL	-3786
JS	-3787
"}	-3788
PAD	-3789
trim	-3790
appendChild	-3791
Section	-3792
MPLE	-3793
▁hw	-3794
ETHER	-3795
ignore	-3796
rics	-3797
Raw	-3798
Build	-3799
BB	-3800
]]	-3801
AX	-3802
0);	-3803
VENDOR	-3804
reply	-3805
2->	-3806
chart	-3807
AME	-3808
PtrFromString	-3809
mix	-3810
▁seq	-3811
Html	-3812
1->	-3813
▁copy	-3814
SOCK	-3815
framework	-3816
MX	-3817
Can	-3818
▁open	-3819
cor	-3820
Condition	-3821
Operand	-3822
utable	-3823
128	-3824
▁fail	-3825
▁view	-3826
DIV	-3827
substring	-3828
prot	-3829
IZ	-3830
77	-3831
▁CO	-3832
Post	-3833
foc	-3834
alpha	-3835
wo	-3836
ered	-3837
RESU	-3838
na	-3839
atio	-3840
ces	-3841
project	-3842
FW	-3843
STOP	-3844
network	-3845
front	-3846
▁global	-3847
reshold	-3848
shared	-3849
RESOURCE	-3850
escape	-3851
drm	-3852
30	-3853
64,	-3854
mv	-3855
Free	-3856
▁top	-3857
▁done	-3858
▁filter	-3859
▁mat	-3860
shot	-3861
ination	-3862
cleanup	-3863
▁sd	-3864
strcmp	-3865
FUNC	-3866
Year	-3867
mplements	-3868
▁fs	-3869
Detail	-3870
▁Time	-3871
▁ct	-3872
&&!	-3873
safe	-3874
▁->	-3875
unlikely	-3876
Fn	-3877
hook	-3878
sets	-3879
(((	-3880
Sec	-3881
panel	-3882
Member	-3883
Shape	-3884
Engine	-3885
▁nv	-3886
Use	-3887
Statement	-3888
2[	-3889
ATOR	-3890
nb	-3891
suspend	-3892
Report	-3893
Move	-3894
endor	-3895
▁ap	-3896
▁head	-3897
▁session	-3898
imum	-3899
extern	-3900
▁that	-3901
Prop	-3902
Sort	-3903
EventListener	-3904
Pair	-3905
WAIT	-3906
tok	-3907
Account	-3908
Ho	-3909
achine	-3910
▁strings	-3911
▁Data	-3912
interval	-3913
pointer	-3914
▁ac	-3915
CNT	-3916
press	-3917
Mouse	-3918
TIMEOUT	-3919
▁gener	-3920
dup	-3921
▁ptr	-3922
▁desc	-3923
kind	-3924
▁sp	-3925
ernal	-3926
Pop	-3927
Slice	-3928
oom	-3929
Fatalf	-3930
▁[-	-3931
PD	-3932
intr	-3933
IND	-3934
requ	-3935
Go	-3936
insn	-3937
ble	-3938
Props	-3939
Show	-3940
Generator	-3941
YPE	-3942
parentNode	-3943
UEST	-3944
Generic	-3945
'=>	-3946
flash	-3947
indent	-3948
POWER	-3949
year	-3950
pca	-3951
sembly	-3952
Annot	-3953
transition	-3954
sin	-3955
IA	-3956
▁cache	-3957
ips	-3958
UNK	-3959
remote	-3960
Player	-3961
gate	-3962
ENTRY	-3963
''	-3964
▁app	-3965
substr	-3966
HOST	-3967
▁CH	-3968
We	-3969
outer	-3970
matches	-3971
rot	-3972
▁channel	-3973
Pattern	-3974
wner	-3975
▁phy	-3976
▁rtl	-3977
RESS	-3978
OPEN	-3979
pix	-3980
assign	-3981
▁To	-3982
Identifier	-3983
lx	-3984
println	-3985
aa	-3986
▁conn	-3987
compare	-3988
Sel	-3989
PARAM	-3990
Bool	-3991
▁{},	-3992
Boolean	-3993
▁ssize	-3994
'>)	-3995
Transaction	-3996
=="	-3997
Axis	-3998
VOL	-3999
Activity	-4000
▁Comp	-4001
bg	-4002
000	-4003
volatile	-4004
LD	-4005
Headers	-4006
ibility	-4007
▁timeout	-4008
▁show	-4009
▁Raw	-4010
tb	-4011
direction	-4012
az	-4013
DESCRIP	-4014
icle	-4015
Common	-4016
▁actual	-4017
LEVEL	-4018
USH	-4019
policy	-4020
matrix	-4021
Sequence	-4022
▁work	-4023
Exist	-4024
56	-4025
ged	-4026
evt	-4027
period	-4028
ness	-4029
ELE	-4030
▁Is	-4031
▁pl	-4032
>=	-4033
reference	-4034
IW	-4035
metadata	-4036
lean	-4037
INDEX	-4038
bers	-4039
AST	-4040
parts	-4041
▁namespace	-4042
VO	-4043
▁cx	-4044
+'	-4045
Elem	-4046
px	-4047
Bundle	-4048
Red	-4049
native	-4050
FILTER	-4051
loor	-4052
IME	-4053
▁echo	-4054
▁total	-4055
▁Int	-4056
TRUE	-4057
sf	-4058
non	-4059
EIO	-4060
BUSY	-4061
4(	-4062
aut	-4063
ctionary	-4064
need	-4065
▁query	-4066
Proxy	-4067
hc	-4068
Expect	-4069
)/	-4070
vcpu	-4071
PIO	-4072
Vertex	-4073
▁load	-4074
TLS	-4075
Rece	-4076
]));	-4077
hd	-4078
bose	-4079
rit	-4080
▁Base	-4081
nic	-4082
▁acpi	-4083
02>,	-4084
Rate	-4085
GTH	-4086
<=	-4087
fetch	-4088
elements	-4089
direct	-4090
Us	-4091
)-	-4092
Ren	-4093
isArray	-4094
ayload	-4095
Ap	-4096
ACPI	-4097
STRE	-4098
loud	-4099
ste	-4100
connector	-4101
fh	-4102
▁ID	-4103
100_	-4104
▁version	-4105
▁super	-4106
variable	-4107
Visible	-4108
▁strlen	-4109
>/.	-4110
26	-4111
selection	-4112
ga	-4113
uce	-4114
Constructor	-4115
CRY	-4116
MAG	-4117
Security	-4118
jax	-4119
▁();	-4120
Pixel	-4121
orith	-4122
LIMIT	-4123
mgr	-4124
39	-4125
ALIGN	-4126
omap	-4127
CACHE	-4128
▁ty	-4129
syn	-4130
1000_	-4131
Simple	-4132
▁vm	-4133
▁Err	-4134
features	-4135
Ob	-4136
SIGN	-4137
RI	-4138
▁model	-4139
hasOwnProperty	-4140
▁up	-4141
acc	-4142
STA	-4143
SRC	-4144
)};	-4145
andlers	-4146
Media	-4147
loy	-4148
Edge	-4149
Windows	-4150
peg	-4151
(:	-4152
ao	-4153
ogle	-4154
SPI	-4155
DV	-4156
aN	-4157
arm	-4158
Binding	-4159
dai	-4160
Seg	-4161
hal	-4162
cookie	-4163
focus	-4164
mmc	-4165
xxx	-4166
ironment	-4167
wx	-4168
conv	-4169
iver	-4170
comment	-4171
Align	-4172
▁del	-4173
construct	-4174
▁ne	-4175
VAR	-4176
Single	-4177
RAN	-4178
vf	-4179
ntax	-4180
GRA	-4181
ASE	-4182
**	-4183
HI	-4184
irr	-4185
Warn	-4186
entic	-4187
transport	-4188
▁cs	-4189
||"	-4190
gspca	-4191
0.	-4192
▁stack	-4193
bitmap	-4194
43_	-4195
IGH	-4196
Off	-4197
▁fe	-4198
condition	-4199
writer	-4200
CHANNEL	-4201
ITH	-4202
▁SNDRV	-4203
8)	-4204
▁ib	-4205
▁(1	-4206
Normal	-4207
IAL	-4208
Rad	-4209
dot	-4210
plot	-4211
reader	-4212
RTC	-4213
Constraint	-4214
rand	-4215
collection	-4216
holder	-4217
iee	-4218
uture	-4219
endar	-4220
▁errors	-4221
Stop	-4222
▁number	-4223
▁prop	-4224
tact	-4225
LENGTH	-4226
ssl	-4227
ieee	-4228
Screen	-4229
RST	-4230
cdev	-4231
bn	-4232
WE	-4233
blob	-4234
validator	-4235
getAttribute	-4236
QUE	-4237
Enc	-4238
Import	-4239
tk	-4240
▁option	-4241
▁DB	-4242
transfer	-4243
Prev	-4244
org	-4245
sem	-4246
[(	-4247
▁link	-4248
regmap	-4249
charAt	-4250
deep	-4251
parator	-4252
weight	-4253
▁print	-4254
duration	-4255
leted	-4256
dn	-4257
loader	-4258
SPACE	-4259
▁prefix	-4260
'},	-4261
ived	-4262
pub	-4263
TM	-4264
Pod	-4265
Domain	-4266
encoding	-4267
otal	-4268
MAL	-4269
kcontrol	-4270
dep	-4271
36	-4272
▁netdev	-4273
Zero	-4274
profile	-4275
;}	-4276
HAL	-4277
POST	-4278
--)	-4279
brid	-4280
crypto	-4281
_1_	-4282
book	-4283
Step	-4284
declare	-4285
21	-4286
▁values	-4287
Word	-4288
lyph	-4289
adv	-4290
Append	-4291
$('	-4292
Progress	-4293
alias	-4294
CRE	-4295
...)	-4296
Profile	-4297
▁public	-4298
Conf	-4299
cert	-4300
CUR	-4301
CLE	-4302
▁script	-4303
setAttribute	-4304
▁{"	-4305
bin	-4306
▁(&	-4307
subdev	-4308
Prom	-4309
TIMER	-4310
▁nr	-4311
▁use	-4312
UART	-4313
annotation	-4314
batch	-4315
04>,	-4316
▁sw	-4317
dmi	-4318
apshot	-4319
manager	-4320
sun	-4321
▁right	-4322
HD	-4323
intel	-4324
97_	-4325
ERO	-4326
]*	-4327
Syscall	-4328
FALSE	-4329
impl	-4330
EFAULT	-4331
▁env	-4332
86_	-4333
PINMUX	-4334
Shader	-4335
rep	-4336
Tick	-4337
Chunk	-4338
isEmpty	-4339
xc	-4340
REQUEST	-4341
_6	-4342
parameters	-4343
compress	-4344
BUS	-4345
,!	-4346
sen	-4347
Results	-4348
eners	-4349
▁resp	-4350
Private	-4351
rece	-4352
▁parser	-4353
calc	-4354
Any	-4355
▁ERR	-4356
POS	-4357
>;	-4358
CLOCK	-4359
cra	-4360
Man	-4361
dispatch	-4362
walk	-4363
Ty	-4364
PACKET	-4365
romise	-4366
▁implements	-4367
toBe	-4368
vars	-4369
lation	-4370
▁ns	-4371
commit	-4372
tokens	-4373
:'\0	-4374
disk	-4375
present	-4376
tcp	-4377
]['	-4378
dered	-4379
xfs	-4380
dentials	-4381
▁){	-4382
,{	-4383
mtd	-4384
Fa	-4385
oriz	-4386
The	-4387
job	-4388
MIX	-4389
.$$	-4390
eric	-4391
▁su	-4392
▁crypto	-4393
▁qu	-4394
side	-4395
▁body	-4396
lm	-4397
ENS	-4398
feature	-4399
DISABLE	-4400
mag	-4401
Unmarshal	-4402
dx	-4403
▁tt	-4404
previous	-4405
EXEC	-4406
ater	-4407
orithm	-4408
RESULT	-4409
Wait	-4410
FRAME	-4411
▁vol	-4412
bucket	-4413
']))	-4414
▁address	-4415
▁vis	-4416
Ids	-4417
▁sign	-4418
integer	-4419
CONNE	-4420
Children	-4421
▁met	-4422
lg	-4423
Native	-4424
ACTIVE	-4425
Animation	-4426
Tests	-4427
▁pt	-4428
activ	-4429
Stats	-4430
slave	-4431
Loop	-4432
__)	-4433
invalid	-4434
same	-4435
▁Py	-4436
▁~(	-4437
storage	-4438
Div	-4439
sv	-4440
Promise	-4441
ending	-4442
UInt	-4443
▁post	-4444
55	-4445
fire	-4446
Sum	-4447
▁Integer	-4448
uv	-4449
▁cc	-4450
?>	-4451
supported	-4452
Machine	-4453
Sizeof	-4454
ocus	-4455
FIFO	-4456
jor	-4457
THREE	-4458
dentry	-4459
union	-4460
toggle	-4461
▁gen	-4462
Equals	-4463
43	-4464
▁IOException	-4465
vertex	-4466
STREAM	-4467
',['	-4468
Span	-4469
generate	-4470
'.$	-4471
▁retval	-4472
▁).	-4473
strings	-4474
hcd	-4475
utdown	-4476
Cluster	-4477
▁date	-4478
factory	-4479
Route	-4480
agent	-4481
256	-4482
Area	-4483
lamb	-4484
legal	-4485
'''	-4486
▁TE	-4487
defaults	-4488
je	-4489
rest	-4490
swap	-4491
wc	-4492
0)),	-4493
days	-4494
SING	-4495
coe	-4496
pwr	-4497
NOR	-4498
Total	-4499
Db	-4500
disabled	-4501
chron	-4502
▁build	-4503
Dig	-4504
▁property	-4505
==="	-4506
lv	-4507
Insert	-4508
▁lp	-4509
Agent	-4510
bad	-4511
att	-4512
required	-4513
RS	-4514
Alloc	-4515
NEW	-4516
▁oper	-4517
Database	-4518
virtual	-4519
band	-4520
▁filename	-4521
fixed	-4522
▁column	-4523
Dim	-4524
3;	-4525
sprintf	-4526
▁command	-4527
language	-4528
Ali	-4529
seek	-4530
dialog	-4531
asure	-4532
bridge	-4533
.'	-4534
ificate	-4535
▁pr	-4536
ETHERTYPE	-4537
'].	-4538
kwargs	-4539
This	-4540
3)	-4541
ited	-4542
COLOR	-4543
MULTI	-4544
Fixed	-4545
lambda	-4546
imp	-4547
compile	-4548
iface	-4549
ATA	-4550
▁RT	-4551
CONF	-4552
▁1	-4553
LOB	-4554
ifs	-4555
PINCTRL	-4556
ended	-4557
HTTP	-4558
Sn	-4559
▁Sh	-4560
▁gpio	-4561
sis	-4562
WID	-4563
getElement	-4564
AI	-4565
capt	-4566
ENSE	-4567
▁argv	-4568
UX	-4569
That	-4570
▁div	-4571
Errors	-4572
▁Text	-4573
erable	-4574
pwm	-4575
GPL	-4576
schedule	-4577
etime	-4578
SND	-4579
multip	-4580
throws	-4581
SG	-4582
pv	-4583
▁JSON	-4584
Zone	-4585
car	-4586
▁fd	-4587
▁position	-4588
▁header	-4589
scr	-4590
.*	-4591
]:	-4592
frag	-4593
II	-4594
Vo	-4595
math	-4596
RTM	-4597
MAGIC	-4598
▁av	-4599
gain	-4600
,$	-4601
▁RE	-4602
generic	-4603
Basic	-4604
POLL	-4605
agn	-4606
ISC	-4607
▁sprintf	-4608
4.	-4609
tags	-4610
week	-4611
DOM	-4612
Decoder	-4613
andard	-4614
▁PTR	-4615
NaN	-4616
opcode	-4617
Exit	-4618
Registry	-4619
▁md	-4620
(['	-4621
pret	-4622
ANCE	-4623
Binary	-4624
operator	-4625
VP	-4626
readl	-4627
ested	-4628
DAP	-4629
▁sn	-4630
.*;	-4631
▁stat	-4632
Success	-4633
Multi	-4634
vma	-4635
Complete	-4636
virt	-4637
rive	-4638
promise	-4639
▁debug	-4640
▁tf	-4641
sleep	-4642
▁serial	-4643
emu	-4644
PIX	-4645
panic	-4646
ino	-4647
zip	-4648
▁mlx	-4649
20_	-4650
Counter	-4651
CLO	-4652
Ind	-4653
CSS	-4654
▁encode	-4655
Join	-4656
ony	-4657
▁Key	-4658
Renderer	-4659
50_	-4660
hav	-4661
ating	-4662
netif	-4663
▁server	-4664
FX	-4665
HIGH	-4666
InputStream	-4667
LIB	-4668
▁raw	-4669
Inform	-4670
trl	-4671
webpack	-4672
mk	-4673
▁Number	-4674
Encoding	-4675
writ	-4676
Depth	-4677
BI	-4678
Points	-4679
▁DMA	-4680
irror	-4681
compute	-4682
ond	-4683
dirty	-4684
Literal	-4685
series	-4686
ategy	-4687
WARNING	-4688
800	-4689
HEADER	-4690
Tags	-4691
▁ath	-4692
Unknown	-4693
await	-4694
;;	-4695
ILD	-4696
CN	-4697
ions	-4698
PEND	-4699
ibling	-4700
Feature	-4701
Collections	-4702
wp	-4703
▁Th	-4704
OLD	-4705
rules	-4706
Uri	-4707
=[],	-4708
scal	-4709
beta	-4710
cred	-4711
argument	-4712
▁*)&	-4713
mpt	-4714
SPEC	-4715
ented	-4716
▁delta	-4717
verbose	-4718
java	-4719
▁keys	-4720
NotNull	-4721
▁wx	-4722
OUTPUT	-4723
AUD	-4724
▁exec	-4725
Resources	-4726
▁ps	-4727
idle	-4728
adap	-4729
ressed	-4730
rcu	-4731
rw	-4732
tn	-4733
margin	-4734
ANY	-4735
BAD	-4736
▁ep	-4737
RENT	-4738
family	-4739
LIC	-4740
▁([]	-4741
Clear	-4742
sector	-4743
▁def	-4744
DATE	-4745
▁THREE	-4746
where	-4747
▁Create	-4748
stride	-4749
▁cp	-4750
▁cfg	-4751
contents	-4752
▁Class	-4753
olution	-4754
intf	-4755
ount	-4756
Replace	-4757
seconds	-4758
Main	-4759
'):	-4760
gno	-4761
PERF	-4762
▁DE	-4763
DateTime	-4764
devices	-4765
tests	-4766
MON	-4767
security	-4768
ze	-4769
isp	-4770
RING	-4771
)):	-4772
RECT	-4773
ability	-4774
setting	-4775
inline	-4776
PROT	-4777
Dom	-4778
Background	-4779
▁isinstance	-4780
Required	-4781
bed	-4782
crc	-4783
1:	-4784
7,	-4785
slab	-4786
':'	-4787
border	-4788
▁chunk	-4789
peat	-4790
pte	-4791
▁kzalloc	-4792
Reset	-4793
anner	-4794
Language	-4795
prevent	-4796
ulk	-4797
▁chip	-4798
adc	-4799
_16	-4800
><	-4801
:["	-4802
pose	-4803
Product	-4804
caps	-4805
Big	-4806
▁Map	-4807
gest	-4808
ANT	-4809
pendency	-4810
rency	-4811
FR	-4812
requency	-4813
▁AD	-4814
expression	-4815
MAND	-4816
93	-4817
_;	-4818
▁jQuery	-4819
Locale	-4820
ATCH	-4821
tools	-4822
gle	-4823
▁scope	-4824
03>,	-4825
decl	-4826
ADC	-4827
hex	-4828
REA	-4829
Decode	-4830
product	-4831
▁Bo	-4832
▁skip	-4833
ired	-4834
detail	-4835
ench	-4836
▁UN	-4837
▁assert	-4838
▁native	-4839
Console	-4840
setTimeout	-4841
legacy	-4842
ULL	-4843
progress	-4844
ARM	-4845
CONST	-4846
OBJECT	-4847
rtlpriv	-4848
ONLY	-4849
rsp	-4850
Scalar	-4851
Connect	-4852
dist	-4853
abort	-4854
accept	-4855
▁sig	-4856
Vec	-4857
seto	-4858
HO	-4859
WS	-4860
xff	-4861
PLAY	-4862
▁Node	-4863
NV	-4864
anchor	-4865
▁cal	-4866
47	-4867
++,	-4868
▁settings	-4869
ae	-4870
▁wm	-4871
▁pass	-4872
▁*=	-4873
UTF	-4874
▁tc	-4875
INTR	-4876
▁back	-4877
AUTO	-4878
Throw	-4879
SDL	-4880
▁pri	-4881
▁Stat	-4882
▁spec	-4883
▁];	-4884
med	-4885
Ent	-4886
submit	-4887
floor	-4888
sWith	-4889
ZERO	-4890
ONT	-4891
01	-4892
Disable	-4893
Instruction	-4894
constant	-4895
METH	-4896
player	-4897
plugins	-4898
VR	-4899
FB	-4900
▁App	-4901
transaction	-4902
getType	-4903
IDEO	-4904
endpoint	-4905
SINGLE	-4906
▁pol	-4907
sid	-4908
ni	-4909
vendor	-4910
resize	-4911
STATS	-4912
strip	-4913
Mac	-4914
changed	-4915
erson	-4916
fra	-4917
volt	-4918
▁types	-4919
SCA	-4920
minor	-4921
)||	-4922
▁GPIO	-4923
shadow	-4924
Strings	-4925
▁all	-4926
frames	-4927
Br	-4928
lain	-4929
password	-4930
COMM	-4931
LONG	-4932
Focus	-4933
▁exit	-4934
▁auto	-4935
URN	-4936
ILE	-4937
Req	-4938
Bean	-4939
▁fact	-4940
Gen	-4941
FAILURE	-4942
BS	-4943
bank	-4944
▁any	-4945
($_	-4946
des	-4947
▁!!	-4948
QUEUE	-4949
segment	-4950
uff	-4951
▁service	-4952
center	-4953
pacity	-4954
My	-4955
xb	-4956
ARY	-4957
Abstract	-4958
trfs	-4959
RGB	-4960
agnost	-4961
Bounds	-4962
Emit	-4963
ordin	-4964
CTOR	-4965
BER	-4966
ACCESS	-4967
background	-4968
TEMP	-4969
92	-4970
Same	-4971
nodeType	-4972
▁msm	-4973
browser	-4974
▁convert	-4975
Sched	-4976
▁Event	-4977
multi	-4978
NFT	-4979
▁(!$	-4980
CORE	-4981
LETE	-4982
DED	-4983
TRANS	-4984
Driver	-4985
unique	-4986
km	-4987
▁lib	-4988
ensor	-4989
▁async	-4990
Operator	-4991
volume	-4992
▁PORT	-4993
Fragment	-4994
splice	-4995
Repository	-4996
](	-4997
▁MA	-4998
▁handler	-4999
▁*(	-5000
POINT	-5001
outb	-5002
40_	-5003
Rep	-5004
▁ArrayList	-5005
Effect	-5006
▁can	-5007
XXX	-5008
ITION	-5009
effect	-5010
subsc	-5011
▁alloc	-5012
bw	-5013
simple	-5014
▁Ext	-5015
Help	-5016
Save	-5017
initialize	-5018
ndev	-5019
WITH	-5020
▁})	-5021
cluster	-5022
▁pc	-5023
maining	-5024
CTX	-5025
Std	-5026
▁Add	-5027
Endpoint	-5028
refresh	-5029
GAIN	-5030
▁initial	-5031
amera	-5032
canvas	-5033
▁control	-5034
Begin	-5035
ATURE	-5036
(()	-5037
Week	-5038
dirname	-5039
GT	-5040
▁fb	-5041
angular	-5042
0(	-5043
Forms	-5044
.(	-5045
▁Hash	-5046
orest	-5047
▁Web	-5048
18>,	-5049
▁Ser	-5050
▁auth	-5051
capture	-5052
ours	-5053
Subsc	-5054
Assign	-5055
tile	-5056
Unexpected	-5057
olute	-5058
World	-5059
tw	-5060
Permission	-5061
▁mon	-5062
lcd	-5063
email	-5064
priority	-5065
▁rule	-5066
udc	-5067
▁wire	-5068
Lookup	-5069
ette	-5070
▁<?	-5071
llegal	-5072
SERV	-5073
75	-5074
yield	-5075
role	-5076
naly	-5077
>::	-5078
lb	-5079
mer	-5080
UGO	-5081
Public	-5082
Unlock	-5083
▁!(	-5084
serialize	-5085
EXP	-5086
member	-5087
▁util	-5088
Vert	-5089
NOWN	-5090
orizont	-5091
Support	-5092
game	-5093
upper	-5094
inity	-5095
ycle	-5096
objects	-5097
radio	-5098
▁title	-5099
plane	-5100
LOCAL	-5101
mitive	-5102
rout	-5103
ragma	-5104
CSR	-5105
inish	-5106
SELE	-5107
pow	-5108
spe	-5109
3);	-5110
cla	-5111
▁sb	-5112
ural	-5113
mmio	-5114
38	-5115
Slot	-5116
ru	-5117
pfn	-5118
▁*)(	-5119
undef	-5120
▁sum	-5121
translate	-5122
2:	-5123
Game	-5124
Chain	-5125
▁SD	-5126
sect	-5127
30_	-5128
illi	-5129
anal	-5130
foo	-5131
ks	-5132
ifiers	-5133
▁iNdEx	-5134
DRM	-5135
▁cm	-5136
▁remove	-5137
picker	-5138
_32	-5139
Contains	-5140
licit	-5141
FACE	-5142
lite	-5143
BOOST	-5144
UM	-5145
PG	-5146
orizontal	-5147
▁NG	-5148
preventDefault	-5149
Abs	-5150
lt	-5151
CONT	-5152
▁[]*	-5153
lush	-5154
({},	-5155
USR	-5156
FileName	-5157
▁mm	-5158
Services	-5159
vi	-5160
uler	-5161
btn	-5162
Category	-5163
DAPM	-5164
machine	-5165
ases	-5166
ARCH	-5167
▁&(	-5168
▁FT	-5169
aster	-5170
ffs	-5171
Blockly	-5172
Sockaddr	-5173
account	-5174
Ra	-5175
dsp	-5176
SUPPORTED	-5177
Timestamp	-5178
bss	-5179
STER	-5180
▁rb	-5181
classes	-5182
Java	-5183
Release	-5184
Folder	-5185
crypt	-5186
MIC	-5187
ulture	-5188
Declar	-5189
CID	-5190
ILL	-5191
▁PR	-5192
▁Buffer	-5193
lative	-5194
Drop	-5195
96	-5196
ker	-5197
Real	-5198
▁RegExp	-5199
Pe	-5200
WIDTH	-5201
irc	-5202
Cla	-5203
padding	-5204
mul	-5205
bf	-5206
▁wrap	-5207
▁(__	-5208
PKT	-5209
Igno	-5210
Drag	-5211
Play	-5212
▁flag	-5213
dap	-5214
utf	-5215
PY	-5216
▁_.	-5217
_2_	-5218
Validation	-5219
icate	-5220
Encoder	-5221
IRUGO	-5222
▁IS	-5223
]).	-5224
WOR	-5225
▁vec	-5226
author	-5227
Angle	-5228
locale	-5229
LOBAL	-5230
▁scale	-5231
POL	-5232
▁ts	-5233
assoc	-5234
▁TypeError	-5235
▁lock	-5236
sumer	-5237
Details	-5238
▁Name	-5239
▁ev	-5240
▁NO	-5241
ILED	-5242
Allow	-5243
jection	-5244
acl	-5245
legend	-5246
labels	-5247
timestamp	-5248
Mesh	-5249
Hex	-5250
::$	-5251
Upper	-5252
▁arr	-5253
wrapper	-5254
▁found	-5255
((*	-5256
BIO	-5257
ASN	-5258
▁PHP	-5259
Diff	-5260
Rows	-5261
xfer	-5262
▁valid	-5263
smp	-5264
FER	-5265
Highlight	-5266
chars	-5267
Mis	-5268
▁Vector	-5269
parseInt	-5270
LP	-5271
70	-5272
▁gl	-5273
AUTHOR	-5274
▁original	-5275
SES	-5276
+00	-5277
actions	-5278
android	-5279
=[];	-5280
IEE	-5281
clipse	-5282
emitter	-5283
Delay	-5284
dprintk	-5285
stringify	-5286
Transport	-5287
install	-5288
uuid	-5289
STD	-5290
76	-5291
RANGE	-5292
Objects	-5293
Dict	-5294
bm	-5295
▁HAL	-5296
1),	-5297
MEDI	-5298
Columns	-5299
iov	-5300
Nil	-5301
when	-5302
junit	-5303
Direction	-5304
Face	-5305
▁ms	-5306
utes	-5307
acity	-5308
ti	-5309
DAC	-5310
vif	-5311
Audio	-5312
operations	-5313
▁wait	-5314
du	-5315
Jax	-5316
Material	-5317
Framework	-5318
vide	-5319
▁api	-5320
Split	-5321
getInstance	-5322
compiler	-5323
▁IORESOURCE	-5324
Lines	-5325
▁free	-5326
ipv	-5327
+(	-5328
25_	-5329
arp	-5330
Compare	-5331
▁UINT	-5332
▁send	-5333
▁rv	-5334
VI	-5335
MR	-5336
Arch	-5337
[-	-5338
Compat	-5339
VALID	-5340
sound	-5341
ome	-5342
_10	-5343
",{	-5344
alle	-5345
FREE	-5346
Suite	-5347
4)	-5348
Bottom	-5349
400	-5350
href	-5351
HDR	-5352
cv	-5353
UNKNOWN	-5354
ube	-5355
▁RawSyscall	-5356
train	-5357
hard	-5358
idi	-5359
pal	-5360
drag	-5361
Transition	-5362
factor	-5363
GC	-5364
parsed	-5365
HS	-5366
▁CR	-5367
reflect	-5368
flat	-5369
▁^=	-5370
buffers	-5371
urnal	-5372
▁results	-5373
tid	-5374
EXIT	-5375
Static	-5376
pw	-5377
▁html	-5378
PROC	-5379
ADDRESS	-5380
animation	-5381
stdout	-5382
HAS	-5383
▁slot	-5384
ctxt	-5385
eclipse	-5386
disc	-5387
▁sz	-5388
kit	-5389
MATCH	-5390
0),	-5391
)&&(	-5392
FAILED	-5393
note	-5394
▁am	-5395
"},{	-5396
got	-5397
fast	-5398
ctr	-5399
Card	-5400
site	-5401
Ph	-5402
ached	-5403
reserve	-5404
IPH	-5405
Sm	-5406
▁DEBUG	-5407
29	-5408
assertThat	-5409
ullable	-5410
PWR	-5411
Environment	-5412
"];	-5413
Rx	-5414
▁chan	-5415
avail	-5416
Ctx	-5417
▁(0	-5418
Password	-5419
Shared	-5420
▁spi	-5421
▁OMAP	-5422
▁thread	-5423
addEventListener	-5424
sequence	-5425
QUAL	-5426
DEC	-5427
()[	-5428
▁adapter	-5429
▁sm	-5430
kg	-5431
IEEE	-5432
CATE	-5433
Overflow	-5434
PRIV	-5435
admin	-5436
▁runtime	-5437
nx	-5438
HASH	-5439
irmware	-5440
ENSOR	-5441
▁Loc	-5442
▁pm	-5443
▁nl	-5444
GRP	-5445
▁di	-5446
tls	-5447
expand	-5448
"].	-5449
tz	-5450
LICENSE	-5451
Border	-5452
dle	-5453
▁den	-5454
failed	-5455
Term	-5456
category	-5457
899	-5458
Metric	-5459
getTime	-5460
"){	-5461
▁xml	-5462
warning	-5463
CONNECT	-5464
Usage	-5465
epCopy	-5466
TUN	-5467
NUSED	-5468
Varint	-5469
columns	-5470
XG	-5471
▁SC	-5472
Second	-5473
jiffies	-5474
▁className	-5475
nodeName	-5476
ssi	-5477
Buff	-5478
GLOBAL	-5479
sess	-5480
pragma	-5481
▁Arg	-5482
mesh	-5483
best	-5484
LOAT	-5485
LOOP	-5486
provider	-5487
▁dm	-5488
Regex	-5489
SQL	-5490
ross	-5491
COMMAND	-5492
Analy	-5493
DESCRIPTION	-5494
Seconds	-5495
pector	-5496
RETURN	-5497
frontend	-5498
LEFT	-5499
▁case	-5500
▁isset	-5501
cinfo	-5502
sure	-5503
ele	-5504
▁NET	-5505
PTRACE	-5506
Proc	-5507
▁lang	-5508
road	-5509
kill	-5510
LAB	-5511
innerHTML	-5512
pcie	-5513
▁Do	-5514
stmt	-5515
▁XX	-5516
eter	-5517
Ctrl	-5518
PIPE	-5519
heet	-5520
▁meta	-5521
▁readl	-5522
Family	-5523
▁yaml	-5524
Annotation	-5525
▁regs	-5526
DF	-5527
LCD	-5528
)&	-5529
vailable	-5530
protobuf	-5531
wire	-5532
udit	-5533
ATOM	-5534
ClassName	-5535
variant	-5536
{'	-5537
Into	-5538
ErrUnexpected	-5539
hdev	-5540
▁<-	-5541
RUN	-5542
▁MO	-5543
Video	-5544
andid	-5545
▁inst	-5546
PHRD	-5547
ALLOC	-5548
Random	-5549
METHOD	-5550
▁cap	-5551
iltin	-5552
arshall	-5553
Direct	-5554
▁queue	-5555
idden	-5556
utor	-5557
[],	-5558
Validator	-5559
INST	-5560
▁nfs	-5561
ATTRIB	-5562
csr	-5563
▁decode	-5564
FLOW	-5565
Cast	-5566
messages	-5567
)}}	-5568
stro	-5569
cached	-5570
ErrUnexpectedEOF	-5571
▁word	-5572
▁$('	-5573
vr	-5574
▁SY	-5575
covery	-5576
▁dec	-5577
')->	-5578
Hook	-5579
rary	-5580
FROM	-5581
emon	-5582
Watch	-5583
checked	-5584
eeprom	-5585
grp	-5586
nf	-5587
16)	-5588
assertFalse	-5589
Break	-5590
▁dw	-5591
SZ	-5592
mbus	-5593
frm	-5594
regist	-5595
Decimal	-5596
▁TX	-5597
running	-5598
915_	-5599
OPTION	-5600
lode	-5601
otg	-5602
xffff	-5603
▁empty	-5604
Now	-5605
Rot	-5606
▁Read	-5607
Remote	-5608
54	-5609
▁argc	-5610
voc	-5611
suite	-5612
RAM	-5613
hidden	-5614
VERIFY	-5615
▁card	-5616
notifier	-5617
Indent	-5618
▁Message	-5619
▁bus	-5620
Place	-5621
▁socket	-5622
VL	-5623
visible	-5624
▁PL	-5625
iss	-5626
Push	-5627
▁At	-5628
DONE	-5629
Attach	-5630
Formatter	-5631
bra	-5632
loaded	-5633
Signature	-5634
tuner	-5635
cer	-5636
listener	-5637
sha	-5638
lack	-5639
ik	-5640
▁props	-5641
"):	-5642
▁enable	-5643
msm	-5644
CONN	-5645
mov	-5646
setof	-5647
Layers	-5648
Qual	-5649
▁ll	-5650
▁common	-5651
thon	-5652
▁SE	-5653
available	-5654
iw	-5655
▁THIS	-5656
strlen	-5657
messageInfo	-5658
▁unit	-5659
▁now	-5660
▁register	-5661
NR	-5662
reason	-5663
big	-5664
Spe	-5665
></	-5666
she	-5667
nn	-5668
Groups	-5669
undefined	-5670
rcv	-5671
extent	-5672
completion	-5673
Merge	-5674
want	-5675
Methods	-5676
sim	-5677
HZ	-5678
:[[	-5679
camera	-5680
uintptr	-5681
()}	-5682
osite	-5683
Character	-5684
hdmi	-5685
NON	-5686
shutdown	-5687
▁selector	-5688
hl	-5689
▁bits	-5690
Opts	-5691
tered	-5692
rg	-5693
adev	-5694
_1,	-5695
pins	-5696
retry	-5697
ota	-5698
▁axis	-5699
▁include	-5700
ROW	-5701
▁radeon	-5702
Im	-5703
HANDLE	-5704
valueOf	-5705
Validate	-5706
ndo	-5707
▁er	-5708
Flow	-5709
saved	-5710
quote	-5711
program	-5712
▁ins	-5713
CAL	-5714
attrib	-5715
▁HT	-5716
WI	-5717
debugfs	-5718
methods	-5719
partition	-5720
▁IB	-5721
Geometry	-5722
Extensions	-5723
:40	-5724
constraint	-5725
origin	-5726
▁bind	-5727
xture	-5728
WORK	-5729
typ	-5730
icrosoft	-5731
AVE	-5732
Resolver	-5733
Classes	-5734
THREAD	-5735
have	-5736
GATE	-5737
wdt	-5738
mdev	-5739
igr	-5740
Consumer	-5741
MAIN	-5742
▁ce	-5743
▁seg	-5744
blank	-5745
VIDEO	-5746
feed	-5747
▁ed	-5748
ROP	-5749
renderer	-5750
iph	-5751
Browser	-5752
hasClass	-5753
dummy	-5754
Arguments	-5755
OVER	-5756
inher	-5757
33	-5758
Ignore	-5759
Identity	-5760
▁RX	-5761
.(*	-5762
▁Comm	-5763
=/<	-5764
Owner	-5765
tuple	-5766
▁Go	-5767
▁STAT	-5768
$("	-5769
Multip	-5770
dac	-5771
Ca	-5772
xmit	-5773
hz	-5774
08>,	-5775
▁comple	-5776
ced	-5777
tfm	-5778
▁ca	-5779
XI	-5780
snprintf	-5781
▁dvb	-5782
locked	-5783
▁On	-5784
BLK	-5785
▁goto	-5786
▁search	-5787
{{	-5788
NotFound	-5789
wb	-5790
reject	-5791
ulation	-5792
SEQ	-5793
defineProperty	-5794
▁sample	-5795
▁limit	-5796
txt	-5797
surface	-5798
boost	-5799
▁indent	-5800
istic	-5801
Plan	-5802
Certificate	-5803
}));	-5804
BC	-5805
bat	-5806
allback	-5807
▁parseInt	-5808
activate	-5809
fake	-5810
Messages	-5811
▁close	-5812
udelay	-5813
ARPHRD	-5814
▁tree	-5815
PID	-5816
Cancel	-5817
moved	-5818
'>);	-5819
▁2	-5820
▁aut	-5821
parameter	-5822
91_	-5823
DELAY	-5824
aux	-5825
IOException	-5826
▁User	-5827
ybe	-5828
animate	-5829
getString	-5830
INET	-5831
invoke	-5832
Light	-5833
(@	-5834
82	-5835
Exists	-5836
RIGHT	-5837
Program	-5838
ATT	-5839
})(	-5840
CPI	-5841
▁Function	-5842
▁dict	-5843
EEE	-5844
dif	-5845
ACTION	-5846
padapter	-5847
Sibling	-5848
▁ic	-5849
▁devm	-5850
ISTER	-5851
▁TYPE	-5852
umb	-5853
16,	-5854
▁Ex	-5855
NUMBER	-5856
▁attribute	-5857
oot	-5858
WL	-5859
sheet	-5860
lish	-5861
ORDER	-5862
▁volatile	-5863
ERNAL	-5864
pename	-5865
branch	-5866
decoder	-5867
seed	-5868
dsi	-5869
models	-5870
Segment	-5871
▁mac	-5872
pause	-5873
▁Sc	-5874
PEG	-5875
Eval	-5876
processor	-5877
ACCE	-5878
_7	-5879
4;	-5880
BYTES	-5881
getId	-5882
ENABLED	-5883
Culture	-5884
regulator	-5885
Supported	-5886
▁mx	-5887
filters	-5888
iq	-5889
SEND	-5890
Platform	-5891
Series	-5892
marker	-5893
yg	-5894
▁Not	-5895
modules	-5896
ugh	-5897
Dimension	-5898
18_	-5899
Sql	-5900
iommu	-5901
nand	-5902
cont	-5903
cogn	-5904
MEMORY	-5905
PHP	-5906
▁schema	-5907
eno	-5908
▁Ab	-5909
PRI	-5910
paths	-5911
▁diff	-5912
geometry	-5913
]+	-5914
ofs	-5915
cfs	-5916
inf	-5917
▁us	-5918
inputs	-5919
▁Promise	-5920
▁abstract	-5921
FLOAT	-5922
Self	-5923
▁XXX	-5924
uted	-5925
DN	-5926
▁conf	-5927
zer	-5928
▁Default	-5929
BN	-5930
▁full	-5931
▁pipe	-5932
▁step	-5933
getElementById	-5934
▁ctrl	-5935
▁mark	-5936
GIN	-5937
▁Op	-5938
hdl	-5939
LOT	-5940
Cor	-5941
▁fp	-5942
chor	-5943
fan	-5944
▁rad	-5945
71	-5946
itive	-5947
pag	-5948
▁Trans	-5949
▁blk	-5950
Notification	-5951
TagName	-5952
▁DEFAULT	-5953
spring	-5954
binary	-5955
voltage	-5956
▁kvm	-5957
Blocks	-5958
Contents	-5959
detect	-5960
operation	-5961
UNUSED	-5962
Dst	-5963
▁SND	-5964
xpr	-5965
Atom	-5966
IDX	-5967
&&"	-5968
UV	-5969
iform	-5970
cos	-5971
60	-5972
which	-5973
username	-5974
,_	-5975
▁ix	-5976
▁cnt	-5977
otion	-5978
(["	-5979
▁pin	-5980
olved	-5981
▁ui	-5982
override	-5983
509	-5984
extract	-5985
MAGE	-5986
FIN	-5987
_->	-5988
ISO	-5989
STRU	-5990
▁IEEE	-5991
___	-5992
▁await	-5993
uate	-5994
hba	-5995
pn	-5996
BOARD	-5997
Metrics	-5998
touch	-5999
RECV	-6000
CONTEXT	-6001
DWORD	-6002
SERVER	-6003
▁mock	-6004
▁scsi	-6005
Batch	-6006
blue	-6007
ANK	-6008
ploy	-6009
SAMPLE	-6010
TOK	-6011
]}	-6012
']]],	-6013
rier	-6014
▁ACPI	-6015
asmine	-6016
ENC	-6017
▁SI	-6018
termin	-6019
DSP	-6020
▁Log	-6021
directory	-6022
arted	-6023
▁>>>	-6024
RTF	-6025
▁*_	-6026
Tile	-6027
argc	-6028
History	-6029
IVER	-6030
▁readonly	-6031
TASK	-6032
Imm	-6033
Behav	-6034
?:	-6035
Failure	-6036
theme	-6037
DY	-6038
disconnect	-6039
Hint	-6040
▁Code	-6041
▁attrs	-6042
Done	-6043
▁PO	-6044
▁loc	-6045
TRA	-6046
▁Con	-6047
=-	-6048
Pipe	-6049
Fill	-6050
REMO	-6051
adjust	-6052
509_	-6053
Setup	-6054
ilities	-6055
CG	-6056
▁store	-6057
verage	-6058
Codec	-6059
Te	-6060
Padding	-6061
Gui	-6062
primary	-6063
000_	-6064
pmu	-6065
mediate	-6066
vals	-6067
SELECT	-6068
ORE	-6069
>);	-6070
▁pp	-6071
THER	-6072
Drawing	-6073
▁ub	-6074
oid	-6075
FULL	-6076
▁enc	-6077
95	-6078
dk	-6079
CNTL	-6080
Marker	-6081
Alg	-6082
Strategy	-6083
Mirror	-6084
normalize	-6085
SIOCG	-6086
▁intel	-6087
allel	-6088
Skip	-6089
OutputStream	-6090
Describe	-6091
RB	-6092
Dev	-6093
Labels	-6094
servable	-6095
▁active	-6096
▁rect	-6097
green	-6098
digest	-6099
setValue	-6100
HCI	-6101
vers	-6102
voice	-6103
▁xfs	-6104
▁save	-6105
threshold	-6106
Touch	-6107
Put	-6108
Arr	-6109
▁proc	-6110
▁fw	-6111
Admin	-6112
LS	-6113
neg	-6114
Origin	-6115
'>:	-6116
Scheme	-6117
APP	-6118
pred	-6119
vlan	-6120
XY	-6121
Prototype	-6122
PASS	-6123
iation	-6124
icator	-6125
extensions	-6126
AreEqual	-6127
controls	-6128
▁ETH	-6129
▁tty	-6130
RW	-6131
Styles	-6132
Instr	-6133
configure	-6134
Sheet	-6135
states	-6136
lend	-6137
sysfs	-6138
BOOL	-6139
▁normal	-6140
Stmt	-6141
cout	-6142
Fake	-6143
▁math	-6144
▁PT	-6145
gbe	-6146
▁with	-6147
optional	-6148
ier	-6149
▁href	-6150
ctp	-6151
▁order	-6152
Pad	-6153
▁MT	-6154
▁CK	-6155
Win	-6156
CU	-6157
inv	-6158
NORMAL	-6159
▁py	-6160
Preference	-6161
▁UART	-6162
▁AL	-6163
▁cursor	-6164
deepEqual	-6165
ArrayList	-6166
▁xx	-6167
login	-6168
REGISTER	-6169
ITEM	-6170
getElements	-6171
▁GET	-6172
▁abs	-6173
37	-6174
cut	-6175
PROM	-6176
Setting	-6177
DIRECT	-6178
▁setup	-6179
tle	-6180
IENT	-6181
distance	-6182
▁EV	-6183
▁Mode	-6184
Destroy	-6185
puts	-6186
RU	-6187
disp	-6188
▁clean	-6189
Clo	-6190
isc	-6191
ersistent	-6192
MPTY	-6193
'=>'	-6194
▁mt	-6195
Side	-6196
UPDATE	-6197
FLUSH	-6198
lated	-6199
yaml	-6200
▁sg	-6201
CHANGE	-6202
cli	-6203
PARM	-6204
tlv	-6205
46	-6206
._.	-6207
Failed	-6208
Printf	-6209
charCode	-6210
history	-6211
ARGET	-6212
▁FLA	-6213
PROP	-6214
samples	-6215
90_	-6216
cycle	-6217
Clip	-6218
smc	-6219
fragment	-6220
collect	-6221
Alpha	-6222
signed	-6223
:]	-6224
tegr	-6225
getParent	-6226
vl	-6227
apture	-6228
▁depth	-6229
Converter	-6230
ior	-6231
SUN	-6232
SSAGE	-6233
▁Token	-6234
izable	-6235
Diagnost	-6236
mixer	-6237
lu	-6238
31_	-6239
ROOT	-6240
Delta	-6241
bfa	-6242
▁packet	-6243
ias	-6244
Blob	-6245
fm	-6246
ENCE	-6247
▁rs	-6248
upload	-6249
major	-6250
Anchor	-6251
▁img	-6252
ggreg	-6253
dapm	-6254
sep	-6255
MTU	-6256
Holder	-6257
▁Up	-6258
untry	-6259
vdev	-6260
ful	-6261
▁urb	-6262
FEATURE	-6263
ories	-6264
▁fc	-6265
subject	-6266
gre	-6267
alance	-6268
▁template	-6269
Filename	-6270
▁core	-6271
▁got	-6272
▁Color	-6273
▁AST	-6274
INTE	-6275
Execution	-6276
FREQ	-6277
drive	-6278
▁form	-6279
Sig	-6280
Lat	-6281
isFunction	-6282
▁factory	-6283
stroke	-6284
compatible	-6285
ulong	-6286
EBUSY	-6287
:'\0'>;	-6288
▁component	-6289
peek	-6290
Delegate	-6291
STACK	-6292
White	-6293
TOP	-6294
Dispatch	-6295
GENER	-6296
Functions	-6297
ARE	-6298
prog	-6299
Declaration	-6300
StatusCode	-6301
▁clear	-6302
Processor	-6303
Center	-6304
leaf	-6305
66	-6306
generated	-6307
udev	-6308
RAW	-6309
Bitmap	-6310
▁hdr	-6311
▁dentry	-6312
()},	-6313
Bra	-6314
▁pattern	-6315
magic	-6316
Surface	-6317
QP	-6318
Scan	-6319
Named	-6320
▁sec	-6321
Qt	-6322
PREFIX	-6323
GFP	-6324
RG	-6325
itional	-6326
logging	-6327
reduce	-6328
inject	-6329
▁[]_	-6330
prob	-6331
CRYP	-6332
▁SDL	-6333
Information	-6334
▁Illegal	-6335
Entries	-6336
Weight	-6337
gu	-6338
eh	-6339
▁expr	-6340
ship	-6341
Loaded	-6342
▁mult	-6343
frequency	-6344
special	-6345
Clock	-6346
▁AC	-6347
visit	-6348
funcs	-6349
mtu	-6350
OWN	-6351
▁video	-6352
atalog	-6353
Chart	-6354
ifest	-6355
▁Boolean	-6356
")),	-6357
CLARE	-6358
CHED	-6359
inet	-6360
iphy	-6361
▁View	-6362
":[	-6363
analy	-6364
▁Cur	-6365
!(	-6366
▁real	-6367
getMessage	-6368
▁editor	-6369
dh	-6370
_12	-6371
▁ra	-6372
nfs	-6373
Alias	-6374
UNIT	-6375
Suffix	-6376
Compar	-6377
firstChild	-6378
Execute	-6379
Calc	-6380
AUDIO	-6381
▁rate	-6382
tagName	-6383
Chars	-6384
MV	-6385
allowed	-6386
Tuple	-6387
▁ident	-6388
tor	-6389
▁Attr	-6390
Bucket	-6391
restart	-6392
Pub	-6393
Mapper	-6394
getElementsBy	-6395
INS	-6396
(&_	-6397
relative	-6398
Seq	-6399
sbi	-6400
alert	-6401
▁Source	-6402
ou	-6403
▁validate	-6404
Compiler	-6405
ioaddr	-6406
thing	-6407
_9	-6408
bulk	-6409
sources	-6410
amdgpu	-6411
entr	-6412
_)	-6413
kvm	-6414
journal	-6415
Should	-6416
Power	-6417
cols	-6418
Distance	-6419
clus	-6420
curs	-6421
Inspector	-6422
})}	-6423
secs	-6424
▁bt	-6425
gi	-6426
OPER	-6427
PLY	-6428
Virtual	-6429
Inf	-6430
perf	-6431
ctype	-6432
▁trace	-6433
+0020	-6434
kobj	-6435
▁Open	-6436
oi	-6437
▁symbol	-6438
▁tab	-6439
_);	-6440
Dictionary	-6441
▁>>=	-6442
▁comedi	-6443
MenuItem	-6444
Bus	-6445
vx	-6446
▁Abstract	-6447
spinlock	-6448
})();	-6449
configuration	-6450
2),	-6451
mq	-6452
toEqual	-6453
Export	-6454
▁Runtime	-6455
setText	-6456
▁cell	-6457
ceptions	-6458
▁font	-6459
Switch	-6460
aligned	-6461
lapse	-6462
}],	-6463
Theme	-6464
texture	-6465
Camera	-6466
FG	-6467
RESH	-6468
mented	-6469
ous	-6470
mbed	-6471
RegExp	-6472
▁delete	-6473
bios	-6474
COD	-6475
entication	-6476
▁curr	-6477
▁btrfs	-6478
ored	-6479
styles	-6480
▁fa	-6481
Extra	-6482
slide	-6483
ka	-6484
Subject	-6485
unset	-6486
parents	-6487
▁EX	-6488
▁EN	-6489
5.	-6490
RV	-6491
Fold	-6492
colors	-6493
▁CMD	-6494
▁[{	-6495
gem	-6496
istics	-6497
ithub	-6498
Io	-6499
alarm	-6500
vor	-6501
dq	-6502
hour	-6503
▁dim	-6504
allet	-6505
EQUAL	-6506
erase	-6507
ROUND	-6508
Payload	-6509
SPEED	-6510
QString	-6511
Period	-6512
roadcast	-6513
iro	-6514
acon	-6515
partial	-6516
READY	-6517
Ready	-6518
▁foo	-6519
pts	-6520
BOOT	-6521
Controls	-6522
world	-6523
ErrorCode	-6524
▁selected	-6525
▁uart	-6526
strcpy	-6527
▁render	-6528
IES	-6529
dvb	-6530
orph	-6531
Dlg	-6532
TRIG	-6533
Matcher	-6534
))))	-6535
Priority	-6536
tg	-6537
CX	-6538
)});	-6539
,[	-6540
▁React	-6541
unch	-6542
▁*);	-6543
▁br	-6544
mbox	-6545
dirfd	-6546
reverse	-6547
GS	-6548
Excel	-6549
={};	-6550
busy	-6551
navig	-6552
enchmark	-6553
▁eth	-6554
firmware	-6555
SCAN	-6556
mmap	-6557
detach	-6558
▁items	-6559
rgb	-6560
abilities	-6561
indio	-6562
Variant	-6563
iop	-6564
Inner	-6565
lun	-6566
44	-6567
svc	-6568
Nullable	-6569
UTC	-6570
Canvas	-6571
INTERFACE	-6572
▁continue	-6573
lax	-6574
▁Image	-6575
EA	-6576
▁XML	-6577
▁we	-6578
32(&	-6579
▁win	-6580
cessed	-6581
mal	-6582
codes	-6583
pkg	-6584
components	-6585
▁location	-6586
strto	-6587
qs	-6588
STAMP	-6589
ium	-6590
ncies	-6591
FORM	-6592
▁pad	-6593
']],	-6594
▁description	-6595
▁custom	-6596
eat	-6597
midi	-6598
▁mapping	-6599
modes	-6600
External	-6601
Curve	-6602
arge	-6603
misc	-6604
future	-6605
▁Field	-6606
▁As	-6607
'][	-6608
▁internal	-6609
Actions	-6610
▁cre	-6611
Imp	-6612
CREATE	-6613
phase	-6614
leave	-6615
[])	-6616
rates	-6617
▁BO	-6618
Pane	-6619
SCR	-6620
bdev	-6621
months	-6622
syscall	-6623
MAN	-6624
▁BT	-6625
_0_	-6626
nel	-6627
failure	-6628
VID	-6629
10,	-6630
BitField	-6631
wifi	-6632
sx	-6633
▁elseif	-6634
oct	-6635
mad	-6636
AES	-6637
Separator	-6638
maps	-6639
Raise	-6640
CARD	-6641
▁Http	-6642
generator	-6643
ATOMIC	-6644
prod	-6645
DMI	-6646
▁Al	-6647
Expected	-6648
ense	-6649
hint	-6650
FAN	-6651
Sys	-6652
gd	-6653
STATIC	-6654
)];	-6655
▁iwl	-6656
▁NA	-6657
Ok	-6658
ATED	-6659
currency	-6660
▁jiffies	-6661
▁sockaddr	-6662
diag	-6663
operand	-6664
MESSAGE	-6665
Peer	-6666
Intent	-6667
▁Task	-6668
▁change	-6669
stub	-6670
Pred	-6671
springframework	-6672
MIXER	-6673
Fix	-6674
asd	-6675
layers	-6676
▁extra	-6677
IMP	-6678
▁stop	-6679
VS	-6680
TOR	-6681
Css	-6682
IPS	-6683
▁mtd	-6684
▁want	-6685
▁extension	-6686
Scene	-6687
efx	-6688
"])	-6689
Library	-6690
icast	-6691
Optional	-6692
*>(	-6693
IDLE	-6694
▁CS	-6695
IFLA	-6696
9>	-6697
Serializer	-6698
Upload	-6699
Available	-6700
ENUM	-6701
validation	-6702
"};	-6703
▁PNG	-6704
eep	-6705
ajax	-6706
pic	-6707
▁Size	-6708
CATEG	-6709
▁display	-6710
material	-6711
▁sq	-6712
▁DA	-6713
getData	-6714
identifier	-6715
tooltip	-6716
CLEAR	-6717
amma	-6718
identity	-6719
geo	-6720
▁dt	-6721
aws	-6722
DST	-6723
llvm	-6724
sas	-6725
Defaults	-6726
database	-6727
▁payload	-6728
▁builder	-6729
placement	-6730
▁connection	-6731
HR	-6732
digit	-6733
qos	-6734
Site	-6735
revision	-6736
coll	-6737
Snapshot	-6738
ENTER	-6739
Radius	-6740
guid	-6741
TON	-6742
INK	-6743
mii	-6744
chk	-6745
ERRUP	-6746
VC	-6747
Secret	-6748
SOCKET	-6749
nes	-6750
RESP	-6751
▁CLK	-6752
_1.	-6753
charset	-6754
Cookie	-6755
▁bound	-6756
Graphics	-6757
dss	-6758
▁NS	-6759
overflow	-6760
Factor	-6761
▁put	-6762
sts	-6763
Low	-6764
ELEMENT	-6765
comb	-6766
scrollTop	-6767
Present	-6768
COND	-6769
Ratio	-6770
DIG	-6771
")},	-6772
▁cls	-6773
Rest	-6774
Old	-6775
SCSI	-6776
Author	-6777
heap	-6778
▁utils	-6779
Email	-6780
Colors	-6781
Phy	-6782
Bad	-6783
DRIVER	-6784
UNSPEC	-6785
hot	-6786
▁clock	-6787
SESSION	-6788
XT	-6789
▁an	-6790
▁dig	-6791
▁bl	-6792
▁ata	-6793
Shadow	-6794
grad	-6795
DEL	-6796
Warning	-6797
svg	-6798
100>	-6799
dy	-6800
PERM	-6801
fops	-6802
▁SW	-6803
ygon	-6804
rror	-6805
);}	-6806
ONA	-6807
Unicode	-6808
▁dat	-6809
AA	-6810
STEM	-6811
▁pid	-6812
isValid	-6813
_[	-6814
rough	-6815
sdev	-6816
Finish	-6817
Paths	-6818
▁da	-6819
alth	-6820
precision	-6821
pmd	-6822
▁layer	-6823
dv	-6824
PB	-6825
Listeners	-6826
▁align	-6827
DUMP	-6828
▁iterator	-6829
pet	-6830
▁scroll	-6831
▁pop	-6832
white	-6833
▁MC	-6834
▁fields	-6835
neigh	-6836
agg	-6837
Dynamic	-6838
sense	-6839
backend	-6840
Monitor	-6841
SCALE	-6842
scheme	-6843
Modal	-6844
MF	-6845
pawn	-6846
CATEGORY	-6847
asy	-6848
Contact	-6849
▁kmalloc	-6850
▁sync	-6851
locity	-6852
DEP	-6853
▁Resource	-6854
▁virtual	-6855
isa	-6856
lier	-6857
anaged	-6858
score	-6859
MathJax	-6860
_0,	-6861
▁Mat	-6862
▁autorest	-6863
HighlightRules	-6864
builtin	-6865
Inline	-6866
thr	-6867
ea	-6868
<>();	-6869
xhr	-6870
▁Block	-6871
assembly	-6872
fid	-6873
▁encoding	-6874
Speed	-6875
adget	-6876
CASE	-6877
cg	-6878
▁sl	-6879
Runner	-6880
▁ocfs	-6881
Dependency	-6882
▁bad	-6883
illis	-6884
INTERRUP	-6885
chronized	-6886
rome	-6887
dog	-6888
erred	-6889
▁domain	-6890
WINDO	-6891
unce	-6892
42	-6893
overlay	-6894
▁parts	-6895
ef	-6896
▁/>	-6897
glyph	-6898
alf	-6899
lict	-6900
LANG	-6901
packets	-6902
ranges	-6903
▁fin	-6904
xp	-6905
example	-6906
clo	-6907
ecc	-6908
cairo	-6909
charCodeAt	-6910
Summary	-6911
apic	-6912
andidate	-6913
Arrays	-6914
IZONA	-6915
Original	-6916
swing	-6917
deferred	-6918
DD	-6919
▁help	-6920
ALG	-6921
SUM	-6922
arc	-6923
ison	-6924
▁reader	-6925
zoom	-6926
▁png	-6927
definition	-6928
ridge	-6929
ollow	-6930
▁ds	-6931
▁mv	-6932
TING	-6933
basic	-6934
Cnt	-6935
▁reset	-6936
VF	-6937
mlx	-6938
▁Action	-6939
▁entity	-6940
getText	-6941
IAN	-6942
lr	-6943
▁uri	-6944
eded	-6945
▁si	-6946
Observer	-6947
binding	-6948
cid	-6949
ween	-6950
9,	-6951
IOCTL	-6952
▁expect	-6953
200>	-6954
CAM	-6955
Refresh	-6956
CAR	-6957
flip	-6958
▁Proto	-6959
getClass	-6960
Pref	-6961
Pending	-6962
handlers	-6963
Called	-6964
▁random	-6965
DEON	-6966
signature	-6967
▁ims	-6968
>/);	-6969
}(	-6970
pendencies	-6971
sTo	-6972
listen	-6973
Calendar	-6974
strictEqual	-6975
Book	-6976
Parts	-6977
allocate	-6978
78	-6979
▁Status	-6980
reserved	-6981
placeholder	-6982
AE	-6983
CMP	-6984
▁vp	-6985
▁SH	-6986
uve	-6987
▁pkt	-6988
▁web	-6989
monitor	-6990
Trigger	-6991
CRYPT	-6992
Shift	-6993
commands	-6994
radius	-6995
called	-6996
8500_	-6997
ITCH	-6998
▁box	-6999
Popup	-7000
Tooltip	-7001
interpret	-7002
▁imp	-7003
▁high	-7004
Mutex	-7005
▁sa	-7006
Lin	-7007
▁bp	-7008
Da	-7009
qui	-7010
hist	-7011
quant	-7012
dword	-7013
als	-7014
oss	-7015
STORE	-7016
▁pd	-7017
▁Path	-7018
▁record	-7019
norm	-7020
iate	-7021
wt	-7022
▁LA	-7023
FM	-7024
Paint	-7025
▁loop	-7026
CLOSE	-7027
WARE	-7028
DECL	-7029
iso	-7030
||!	-7031
")}	-7032
RPC	-7033
(!(	-7034
PROG	-7035
stdio	-7036
users	-7037
▁STATUS	-7038
It	-7039
MaskBit	-7040
▁DBG	-7041
RSA	-7042
▁perf	-7043
ERY	-7044
▁simple	-7045
links	-7046
wakeup	-7047
uveau	-7048
mvm	-7049
BitFieldMaskBit	-7050
Have	-7051
bot	-7052
TV	-7053
querySelector	-7054
Transfer	-7055
▁nf	-7056
AW	-7057
▁Invalid	-7058
UTTON	-7059
▁iio	-7060
nid	-7061
▁Argument	-7062
ICK	-7063
childNodes	-7064
sch	-7065
stor	-7066
mic	-7067
Writ	-7068
relax	-7069
▁day	-7070
slots	-7071
TT	-7072
()]	-7073
BD	-7074
formats	-7075
clks	-7076
▁Sub	-7077
ssize	-7078
CHIP	-7079
STS	-7080
itude	-7081
keep	-7082
encrypt	-7083
imx	-7084
MG	-7085
iobase	-7086
ulated	-7087
,(	-7088
nav	-7089
dash	-7090
nable	-7091
ELEM	-7092
strm	-7093
writeb	-7094
▁private	-7095
EMPTY	-7096
cia	-7097
/>	-7098
Standard	-7099
▁LL	-7100
▁(;	-7101
Reason	-7102
▁Index	-7103
▁Mem	-7104
ether	-7105
▁tp	-7106
▁Dis	-7107
logy	-7108
istration	-7109
VOID	-7110
▁Sw	-7111
[_	-7112
▁Attribute	-7113
".$	-7114
})},	-7115
▁#	-7116
paque	-7117
ike	-7118
tection	-7119
Structure	-7120
xattr	-7121
6)	-7122
Cfg	-7123
▁wireType	-7124
iow	-7125
UBLE	-7126
▁QString	-7127
TOKEN	-7128
MALL	-7129
▁Google	-7130
REGS	-7131
88_	-7132
ism	-7133
suffix	-7134
▁CX	-7135
COPY	-7136
MULTICAST	-7137
Tokens	-7138
BOX	-7139
ways	-7140
SERIAL	-7141
dynamic	-7142
▁fl	-7143
▁pe	-7144
ERE	-7145
▁previous	-7146
atterns	-7147
serialized	-7148
instr	-7149
45	-7150
Coll	-7151
300_	-7152
perm	-7153
JECT	-7154
ratio	-7155
▁button	-7156
Visitor	-7157
▁Point	-7158
bufs	-7159
Safe	-7160
80_	-7161
▁An	-7162
OMAP	-7163
stage	-7164
▁mb	-7165
SourceMap	-7166
Opcode	-7167
opacity	-7168
▁cla	-7169
Sl	-7170
gx	-7171
▁Parse	-7172
▁partial	-7173
▁dom	-7174
riteria	-7175
forms	-7176
registry	-7177
loss	-7178
cnic	-7179
awt	-7180
▁eq	-7181
SEG	-7182
oke	-7183
SHORT	-7184
))}	-7185
CRC	-7186
REV	-7187
tables	-7188
▁split	-7189
▁mmc	-7190
Tasks	-7191
▁Context	-7192
Small	-7193
dtype	-7194
Make	-7195
redirect	-7196
COE	-7197
Lex	-7198
91	-7199
Syntax	-7200
Disabled	-7201
pagation	-7202
rem	-7203
percent	-7204
Pin	-7205
Primitive	-7206
;)	-7207
▁ValueError	-7208
Margin	-7209
▁toString	-7210
Contract	-7211
▁should	-7212
Algorithm	-7213
▁eval	-7214
6.	-7215
NEXT	-7216
ims	-7217
good	-7218
▁project	-7219
NOTE	-7220
▁icon	-7221
times	-7222
StackTrace	-7223
devpriv	-7224
▁strconv	-7225
Bl	-7226
tlb	-7227
worker	-7228
Dot	-7229
▁over	-7230
▁listener	-7231
▁xxx	-7232
Keyword	-7233
Suppress	-7234
ynos	-7235
ircle	-7236
Escape	-7237
isNaN	-7238
▁My	-7239
Handlers	-7240
▁timer	-7241
unused	-7242
structure	-7243
8001_	-7244
ators	-7245
▁lines	-7246
▁Gener	-7247
Heap	-7248
Deploy	-7249
IndexOf	-7250
▁4	-7251
details	-7252
▁dc	-7253
▁Qt	-7254
Hand	-7255
Amount	-7256
SYSTEM	-7257
uzz	-7258
SOL	-7259
GUI	-7260
_64	-7261
agement	-7262
,&	-7263
IMAGE	-7264
▁generate	-7265
SYN	-7266
▁wl	-7267
RELE	-7268
ront	-7269
Serv	-7270
SUS	-7271
unre	-7272
'}),	-7273
cloud	-7274
21_	-7275
PING	-7276
=$	-7277
▁FN	-7278
▁escape	-7279
arrow	-7280
AMETER	-7281
▁PRO	-7282
tpl	-7283
▁CPU	-7284
▁clone	-7285
Reply	-7286
')).	-7287
swith	-7288
▁region	-7289
▁tok	-7290
Getter	-7291
VERT	-7292
TEXTURE	-7293
▁aws	-7294
▁files	-7295
Sound	-7296
STRUCT	-7297
keyCode	-7298
fac	-7299
Cho	-7300
offs	-7301
ERS	-7302
▁MIN	-7303
SIOCGIF	-7304
nan	-7305
endregion	-7306
::_	-7307
ByName	-7308
indices	-7309
ents	-7310
▁FB	-7311
HEAP	-7312
forward	-7313
Cloud	-7314
ByteArray	-7315
Wire	-7316
▁pb	-7317
scene	-7318
▁collection	-7319
smart	-7320
timing	-7321
SUNXI	-7322
▁power	-7323
hold	-7324
▁edge	-7325
Gra	-7326
pas	-7327
most	-7328
pull	-7329
▁JS	-7330
illiseconds	-7331
DELETE	-7332
32.	-7333
ito	-7334
getOperand	-7335
plus	-7336
SUPP	-7337
gmt	-7338
:\	-7339
▁Zend	-7340
▁Input	-7341
ane	-7342
LEEP	-7343
ibution	-7344
▁goog	-7345
NB	-7346
▁sort	-7347
▁ERROR	-7348
gf	-7349
EXTEN	-7350
]];	-7351
Navig	-7352
uest	-7353
TARGET	-7354
Js	-7355
▁(++	-7356
▁headers	-7357
fence	-7358
▁transform	-7359
▁apply	-7360
elf	-7361
▁Le	-7362
appendTo	-7363
UpperCase	-7364
SIC	-7365
inder	-7366
Sym	-7367
Checked	-7368
itr	-7369
ading	-7370
Master	-7371
delayed	-7372
spy	-7373
▁nodes	-7374
▁NV	-7375
▁seed	-7376
ATIVE	-7377
▁llc	-7378
Initialize	-7379
▁ff	-7380
▁arch	-7381
IWUSR	-7382
typename	-7383
▁ph	-7384
INTEGER	-7385
ATTRIBUTE	-7386
▁Long	-7387
INTERNAL	-7388
DECLARE	-7389
vd	-7390
folder	-7391
++);	-7392
Eq	-7393
_("	-7394
unlink	-7395
irqs	-7396
▁dp	-7397
▁pool	-7398
SQ	-7399
shost	-7400
parm	-7401
60_	-7402
sof	-7403
msr	-7404
xf	-7405
mlme	-7406
▁sun	-7407
BUILD	-7408
Tex	-7409
Verify	-7410
secret	-7411
ALI	-7412
alc	-7413
▁tegra	-7414
UME	-7415
▁/=	-7416
asc	-7417
▁stats	-7418
Ma	-7419
mfony	-7420
UA	-7421
▁Sk	-7422
VB	-7423
gy	-7424
wpa	-7425
OPC	-7426
ries	-7427
ENOENT	-7428
400>	-7429
SENT	-7430
▁--	-7431
Patch	-7432
▁Util	-7433
uggest	-7434
seu	-7435
hover	-7436
coexist	-7437
(&(	-7438
Leg	-7439
={},	-7440
receive	-7441
Hdr	-7442
pires	-7443
msleep	-7444
TypeDef	-7445
Stub	-7446
▁Request	-7447
fixup	-7448
▁AF	-7449
highlight	-7450
fname	-7451
▁tm	-7452
>&	-7453
umpy	-7454
tif	-7455
▁owner	-7456
]||	-7457
▁stride	-7458
mel	-7459
ron	-7460
Note	-7461
fold	-7462
MMC	-7463
Expand	-7464
uation	-7465
▁sym	-7466
activity	-7467
xen	-7468
Endian	-7469
▁dist	-7470
cmnd	-7471
ncmp	-7472
fds	-7473
grade	-7474
_2,	-7475
▁SPI	-7476
▁0)	-7477
threads	-7478
ICY	-7479
▁alpha	-7480
▁round	-7481
▁Or	-7482
translation	-7483
▁low	-7484
urable	-7485
Aggreg	-7486
▁bar	-7487
▁kw	-7488
ffic	-7489
FLASH	-7490
Measure	-7491
Receive	-7492
vocation	-7493
annotations	-7494
arity	-7495
SERVICE	-7496
8.	-7497
▁hton	-7498
ipc	-7499
▁Out	-7500
▁acc	-7501
IPHER	-7502
vertices	-7503
heel	-7504
Other	-7505
▁Symbol	-7506
HashMap	-7507
UNLOCK	-7508
▁endif	-7509
ucer	-7510
buttons	-7511
Loading	-7512
▁XFS	-7513
▁3	-7514
Relative	-7515
4);	-7516
dget	-7517
▁vector	-7518
SF	-7519
weak	-7520
crement	-7521
)+"	-7522
sdata	-7523
Comb	-7524
rypted	-7525
marshall	-7526
OG	-7527
▁nb	-7528
▁ql	-7529
"!==	-7530
Modified	-7531
▁exist	-7532
repeat	-7533
DOUBLE	-7534
Include	-7535
Allowed	-7536
Used	-7537
Reflection	-7538
CY	-7539
cpus	-7540
▁Update	-7541
▁Method	-7542
▁PHY	-7543
▁fill	-7544
very	-7545
DataType	-7546
Percent	-7547
Slide	-7548
Pag	-7549
perform	-7550
ENV	-7551
▁inner	-7552
▁COMP	-7553
▁lambda	-7554
iddle	-7555
maybe	-7556
strap	-7557
pacing	-7558
▁ax	-7559
consum	-7560
▁Simple	-7561
Raises	-7562
SVG	-7563
cursive	-7564
seudo	-7565
eters	-7566
will	-7567
poly	-7568
curve	-7569
INF	-7570
removeChild	-7571
▁5	-7572
▁Ad	-7573
served	-7574
scalar	-7575
▁substr	-7576
▁Config	-7577
-=	-7578
zy	-7579
CLIENT	-7580
DESCRIPTOR	-7581
erator	-7582
▁pi	-7583
complex	-7584
CLU	-7585
▁NUM	-7586
PARAMETER	-7587
DISP	-7588
BUTTON	-7589
;++	-7590
PRIVATE	-7591
LABEL	-7592
getProperty	-7593
Propagation	-7594
onical	-7595
Features	-7596
dataset	-7597
▁draw	-7598
256_	-7599
OV	-7600
Zoom	-7601
Visibility	-7602
▁He	-7603
▁freq	-7604
MISC	-7605
MEMB	-7606
(("	-7607
▁scan	-7608
:'0	-7609
remaining	-7610
▁pointer	-7611
ja	-7612
>/;	-7613
▁MAC	-7614
▁tcp	-7615
iS	-7616
Dump	-7617
▁sel	-7618
Worker	-7619
gadget	-7620
Final	-7621
amount	-7622
▁force	-7623
BIND	-7624
lector	-7625
GID	-7626
oll	-7627
gm	-7628
mob	-7629
▁success	-7630
Activ	-7631
ensure	-7632
adr	-7633
pod	-7634
▁so	-7635
▁imx	-7636
:/<	-7637
LAST	-7638
')),	-7639
mpol	-7640
unbind	-7641
▁red	-7642
MK	-7643
PED	-7644
▁Symfony	-7645
▁mc	-7646
bias	-7647
▁il	-7648
lour	-7649
▁TEST	-7650
▁resolve	-7651
▁delay	-7652
ssid	-7653
connected	-7654
download	-7655
▁Act	-7656
radient	-7657
Coord	-7658
peated	-7659
▁For	-7660
▁syn	-7661
oop	-7662
shader	-7663
'}	-7664
Clone	-7665
▁need	-7666
MII	-7667
▁evt	-7668
lee	-7669
documentElement	-7670
▁dx	-7671
none	-7672
rng	-7673
ove	-7674
mgmt	-7675
LC	-7676
▁SSL	-7677
resses	-7678
Round	-7679
Try	-7680
24_	-7681
toUpperCase	-7682
look	-7683
▁by	-7684
ategories	-7685
mnt	-7686
Schedule	-7687
uses	-7688
COR	-7689
provide	-7690
▁best	-7691
▁SHA	-7692
uf	-7693
▁Mock	-7694
▁parsed	-7695
nat	-7696
moveTo	-7697
aes	-7698
initdata	-7699
Forward	-7700
sdio	-7701
▁section	-7702
Guid	-7703
▁vf	-7704
Accessor	-7705
:])	-7706
linear	-7707
Threshold	-7708
tgt	-7709
jack	-7710
external	-7711
▁gs	-7712
helpers	-7713
▁Write	-7714
lane	-7715
asing	-7716
assertRaises	-7717
named	-7718
Download	-7719
Price	-7720
stp	-7721
:-	-7722
)((	-7723
pthread	-7724
wqe	-7725
WO	-7726
▁bottom	-7727
contain	-7728
▁//	-7729
▁regex	-7730
bounds	-7731
BLE	-7732
rtw	-7733
▁FE	-7734
cpp	-7735
Asset	-7736
Alignment	-7737
Combo	-7738
Horizontal	-7739
▁pdev	-7740
REQUI	-7741
actor	-7742
▁Element	-7743
SIOCSI	-7744
MASTER	-7745
txq	-7746
bv	-7747
FORCE	-7748
REL	-7749
ancell	-7750
bundle	-7751
Force	-7752
services	-7753
trig	-7754
finally	-7755
precated	-7756
BIG	-7757
iowrite	-7758
▁et	-7759
trap	-7760
▁car	-7761
▁NL	-7762
AIL	-7763
DH	-7764
inger	-7765
Backend	-7766
▁Char	-7767
▁Bit	-7768
▁ob	-7769
offsets	-7770
imize	-7771
▁bb	-7772
fcp	-7773
▁cond	-7774
▁offsetof	-7775
isr	-7776
WREG	-7777
Tools	-7778
iated	-7779
getCurrent	-7780
SNDRV	-7781
orient	-7782
SETTING	-7783
▁DEVICE	-7784
Contain	-7785
IEW	-7786
▁pdata	-7787
rsa	-7788
▁dd	-7789
▁HAVE	-7790
<?>	-7791
More	-7792
▁Float	-7793
Diagnostics	-7794
sge	-7795
NP	-7796
"});	-7797
OPS	-7798
dimension	-7799
▁finally	-7800
▁descriptor	-7801
XGBE	-7802
Commit	-7803
elt	-7804
▁css	-7805
FIRST	-7806
▁js	-7807
PyObject	-7808
Mgr	-7809
]},	-7810
fileName	-7811
vcc	-7812
▁Property	-7813
Clean	-7814
)],	-7815
▁graph	-7816
▁rand	-7817
THRESH	-7818
application	-7819
getLine	-7820
toArray	-7821
decor	-7822
router	-7823
▁Command	-7824
▁loff	-7825
qla	-7826
▁operator	-7827
▁attributes	-7828
▁State	-7829
issue	-7830
▁ir	-7831
quir	-7832
13_	-7833
Attrib	-7834
INTEL	-7835
snap	-7836
GLE	-7837
▁Collection	-7838
quare	-7839
esp	-7840
PROPER	-7841
Defined	-7842
Primary	-7843
Future	-7844
coming	-7845
Fetch	-7846
algorithm	-7847
TRIGGER	-7848
▁allow	-7849
0[	-7850
▁(-	-7851
CURRENT	-7852
▁bin	-7853
modal	-7854
Notify	-7855
STEP	-7856
KILL	-7857
playback	-7858
▁hex	-7859
▁ii	-7860
lope	-7861
CDC	-7862
zon	-7863
rport	-7864
qe	-7865
fun	-7866
▁cinfo	-7867
INC	-7868
jit	-7869
room	-7870
Unique	-7871
asn	-7872
Ter	-7873
initialized	-7874
ersistence	-7875
▁console	-7876
psz	-7877
Unix	-7878
MSK	-7879
Login	-7880
▁regulator	-7881
Days	-7882
▁ec	-7883
▁usage	-7884
mplemented	-7885
__.	-7886
▁cy	-7887
Neg	-7888
DES	-7889
Components	-7890
Fd	-7891
Kernel	-7892
▁one	-7893
▁{{	-7894
assertSame	-7895
wind	-7896
LX	-7897
pDevice	-7898
prio	-7899
CV	-7900
▁ring	-7901
Completion	-7902
Enter	-7903
destination	-7904
functions	-7905
Strip	-7906
Feed	-7907
answ	-7908
getContext	-7909
JO	-7910
▁dAtA	-7911
▁Service	-7912
HP	-7913
CLR	-7914
▁slice	-7915
DAY	-7916
units	-7917
Warnings	-7918
Retry	-7919
nm	-7920
▁BN	-7921
DEN	-7922
tensor	-7923
}};	-7924
RAD	-7925
written	-7926
ads	-7927
▁Marshal	-7928
getNode	-7929
pat	-7930
delegate	-7931
Matches	-7932
Created	-7933
Hidden	-7934
Quote	-7935
Println	-7936
die	-7937
Fi	-7938
▁omp	-7939
Inet	-7940
Coordin	-7941
musb	-7942
msi	-7943
▁rece	-7944
ancellation	-7945
igration	-7946
▁Uint	-7947
:[{	-7948
rea	-7949
VOLUME	-7950
MBUS	-7951
ngx	-7952
Ip	-7953
▁uid	-7954
vaddr	-7955
41	-7956
Indices	-7957
NETLINK	-7958
PROCESS	-7959
Emitter	-7960
▁tokens	-7961
libr	-7962
nu	-7963
Rotation	-7964
mime	-7965
under	-7966
Absolute	-7967
MEDIA	-7968
63	-7969
▁fi	-7970
unpack	-7971
orth	-7972
bfd	-7973
bright	-7974
sil	-7975
åå	-7976
Acc	-7977
hostname	-7978
sizes	-7979
inherits	-7980
▁Component	-7981
geom	-7982
▁OC	-7983
▁Microsoft	-7984
▁warn	-7985
rement	-7986
▁No	-7987
RTL	-7988
metrics	-7989
Millis	-7990
images	-7991
epi	-7992
dlm	-7993
DUP	-7994
unknown	-7995
RTS	-7996
AIN	-7997
oted	-7998
Undefined	-7999
▁Di	-8000
qc	-8001
SHARED	-8002
remap	-8003
adj	-8004
early	-8005
RTA	-8006
▁cf	-8007
EXCE	-8008
;;)	-8009
▁PM	-8010
▁RA	-8011
ei	-8012
WAY	-8013
Relation	-8014
▁HashMap	-8015
Pay	-8016
sqrt	-8017
▁].	-8018
Tmp	-8019
."	-8020
▁tool	-8021
URAL	-8022
cntl	-8023
▁Run	-8024
attery	-8025
Mix	-8026
SLOT	-8027
▁nvkm	-8028
ulse	-8029
1]	-8030
beacon	-8031
Resolve	-8032
EXPR	-8033
oth	-8034
Symbols	-8035
▁sin	-8036
▁LOG	-8037
NOP	-8038
INITIAL	-8039
Implemented	-8040
limits	-8041
WINDOW	-8042
▁Prop	-8043
okies	-8044
▁cr	-8045
bx	-8046
Tracker	-8047
mpi	-8048
48	-8049
▁<<=	-8050
ango	-8051
▁second	-8052
BAR	-8053
▁disable	-8054
rotation	-8055
MSI	-8056
09	-8057
]-	-8058
hpp	-8059
TECT	-8060
Special	-8061
callbacks	-8062
▁driver	-8063
▁Net	-8064
▁EXT	-8065
▁PPC	-8066
Apply	-8067
▁bcm	-8068
▁ul	-8069
Hours	-8070
summary	-8071
▁Str	-8072
POLICY	-8073
topic	-8074
palette	-8075
▁Big	-8076
erate	-8077
Nested	-8078
ObjectMeta	-8079
OCOL	-8080
aker	-8081
avctx	-8082
mci	-8083
=_	-8084
zure	-8085
scratch	-8086
QUERY	-8087
▁compare	-8088
▁iv	-8089
$$	-8090
OID	-8091
curl	-8092
▁integer	-8093
▁ATA	-8094
12,	-8095
▁?></	-8096
▁DRM	-8097
TIMESTAMP	-8098
▁Stream	-8099
▁Param	-8100
▁sr	-8101
Alert	-8102
▁rpc	-8103
pAd	-8104
TOOL	-8105
SHUT	-8106
▁Option	-8107
RTAX	-8108
rain	-8109
▁IllegalArgument	-8110
evaluate	-8111
licate	-8112
▁WIN	-8113
ters	-8114
▁CKEDITOR	-8115
Car	-8116
▁access	-8117
ALEN	-8118
ICMP	-8119
registers	-8120
consumer	-8121
▁events	-8122
PRIOR	-8123
▁BU	-8124
▁menu	-8125
▁models	-8126
LACE	-8127
popup	-8128
Ops	-8129
Syn	-8130
ALT	-8131
hooks	-8132
riber	-8133
toolbar	-8134
incip	-8135
▁Json	-8136
btree	-8137
Sprite	-8138
filp	-8139
INTERRUPT	-8140
Decor	-8141
OLE	-8142
logical	-8143
Shell	-8144
mn	-8145
anit	-8146
▁job	-8147
tasks	-8148
UUID	-8149
REEN	-8150
▁calc	-8151
paint	-8152
Accept	-8153
unicode	-8154
listeners	-8155
.$.	-8156
avg	-8157
mib	-8158
▁));	-8159
▁insert	-8160
MULT	-8161
Previous	-8162
jasmine	-8163
▁ind	-8164
▁Reset	-8165
interop	-8166
hb	-8167
design	-8168
Overlay	-8169
ants	-8170
sqlite	-8171
Need	-8172
GroupVersion	-8173
dyn	-8174
vport	-8175
▁direction	-8176
mdio	-8177
Dist	-8178
▁space	-8179
TLV	-8180
▁parameters	-8181
STM	-8182
02_	-8183
Invoke	-8184
▁Var	-8185
relation	-8186
Attachment	-8187
reloc	-8188
52	-8189
BEGIN	-8190
Quant	-8191
closest	-8192
ARGS	-8193
▁trim	-8194
vq	-8195
Capture	-8196
MEMBER	-8197
insertBefore	-8198
FIXED	-8199
cognized	-8200
▁HW	-8201
IRT	-8202
▁MX	-8203
ADV	-8204
▁SQL	-8205
665	-8206
▁pcm	-8207
"=>	-8208
▁MB	-8209
▁la	-8210
▁bfa	-8211
hwmod	-8212
iour	-8213
▁Builder	-8214
cmds	-8215
▁MD	-8216
▁exception	-8217
Resize	-8218
)==	-8219
getKey	-8220
PPC	-8221
▁month	-8222
mpoline	-8223
▁lua	-8224
crop	-8225
Trim	-8226
kl	-8227
jq	-8228
"!=	-8229
rdma	-8230
GPU	-8231
pear	-8232
strncmp	-8233
Checker	-8234
($.	-8235
exclude	-8236
IMX	-8237
queues	-8238
ALIAS	-8239
:80	-8240
▁Logger	-8241
SLA	-8242
▁shape	-8243
14>	-8244
Disk	-8245
PHA	-8246
▁vid	-8247
hub	-8248
SWITCH	-8249
Modules	-8250
)|	-8251
ets	-8252
datetime	-8253
▁FI	-8254
128_	-8255
▁atomic	-8256
eps	-8257
INV	-8258
nested	-8259
CODEC	-8260
vmx	-8261
▁ARIZONA	-8262
mapped	-8263
mazon	-8264
ales	-8265
lif	-8266
AK	-8267
RR	-8268
lapsed	-8269
▁replace	-8270
iser	-8271
unshift	-8272
=["	-8273
datepicker	-8274
Two	-8275
><?	-8276
devs	-8277
share	-8278
▁zip	-8279
Oneof	-8280
*,	-8281
▁ci	-8282
Missing	-8283
widgets	-8284
calls	-8285
EK	-8286
stick	-8287
stdlib	-8288
LM	-8289
Led	-8290
ilt	-8291
▁Link	-8292
▁codec	-8293
qh	-8294
ables	-8295
BIN	-8296
kb	-8297
Hide	-8298
831	-8299
tsk	-8300
embed	-8301
consume	-8302
8;	-8303
So	-8304
▁connect	-8305
73	-8306
graphics	-8307
ook	-8308
05	-8309
Requests	-8310
▁IXGBE	-8311
hand	-8312
cii	-8313
Phys	-8314
▁ARM	-8315
▁TIM	-8316
▁Result	-8317
11,	-8318
OTHER	-8319
SOFT	-8320
="<?	-8321
sdp	-8322
▁promise	-8323
HANDLED	-8324
_##	-8325
ression	-8326
ENA	-8327
▁TestCase	-8328
mmar	-8329
separator	-8330
▁PLURAL	-8331
MACH	-8332
python	-8333
permission	-8334
▁counter	-8335
descr	-8336
mean	-8337
relaxed	-8338
abstract	-8339
DROP	-8340
urst	-8341
COMPAT	-8342
▁hid	-8343
LET	-8344
statement	-8345
▁ops	-8346
ADAP	-8347
▁qp	-8348
▁))	-8349
Oc	-8350
ticks	-8351
abric	-8352
▁::	-8353
▁Mon	-8354
NORE	-8355
FAST	-8356
rotate	-8357
▁SENSOR	-8358
LB	-8359
▁rest	-8360
Picker	-8361
ReadOnly	-8362
PRIORITY	-8363
-(	-8364
▁password	-8365
uncate	-8366
getDefault	-8367
▁equal	-8368
▁plugin	-8369
▁DateTime	-8370
LV	-8371
small	-8372
000000	-8373
Digest	-8374
▁HZ	-8375
▁visit	-8376
▁pkg	-8377
xprt	-8378
numeric	-8379
GUID	-8380
algo	-8381
ano	-8382
expects	-8383
▁efx	-8384
Arrow	-8385
interruptible	-8386
3:	-8387
▁after	-8388
variables	-8389
tached	-8390
▁report	-8391
NOTI	-8392
Extract	-8393
')[	-8394
▁VM	-8395
qdev	-8396
Debugger	-8397
SLEEP	-8398
Leaf	-8399
▁Delete	-8400
▁px	-8401
▁dy	-8402
herent	-8403
Persistent	-8404
ven	-8405
hf	-8406
▁virt	-8407
verted	-8408
▁credentials	-8409
Chan	-8410
Complex	-8411
ryption	-8412
online	-8413
imiter	-8414
Constraints	-8415
literal	-8416
contact	-8417
07	-8418
Servlet	-8419
Analysis	-8420
▁rel	-8421
▁STR	-8422
Credentials	-8423
EVP	-8424
checksum	-8425
Visual	-8426
▁Oper	-8427
interopRequire	-8428
PIXEL	-8429
▁dtype	-8430
::~	-8431
mdp	-8432
▁regmap	-8433
▁sql	-8434
▁tests	-8435
Flush	-8436
1))	-8437
):(	-8438
Subscription	-8439
Sim	-8440
memcmp	-8441
Cons	-8442
"?	-8443
SPR	-8444
formed	-8445
:0.	-8446
trampoline	-8447
▁duration	-8448
DeepCopy	-8449
▁pair	-8450
setState	-8451
▁endpoint	-8452
Models	-8453
HC	-8454
840_	-8455
ULONG	-8456
▁CC	-8457
GX	-8458
"&&	-8459
imm	-8460
CIPHER	-8461
()){	-8462
PWM	-8463
serted	-8464
preg	-8465
Enumerable	-8466
utation	-8467
Iss	-8468
rssi	-8469
▁sens	-8470
▁Enum	-8471
Tip	-8472
▁postIndex	-8473
XP	-8474
cck	-8475
jpeg	-8476
aled	-8477
Dtype	-8478
directive	-8479
▁SV	-8480
Dup	-8481
agento	-8482
▁face	-8483
68	-8484
DW	-8485
Linear	-8486
▁vb	-8487
aries	-8488
INSTANCE	-8489
ehci	-8490
cells	-8491
▁kind	-8492
Codes	-8493
Drawable	-8494
Records	-8495
alette	-8496
alan	-8497
▁em	-8498
Comments	-8499
▁merge	-8500
bone	-8501
preview	-8502
▁tags	-8503
▁metadata	-8504
foot	-8505
tyObject	-8506
▁Ass	-8507
▁PAR	-8508
ligh	-8509
▁Check	-8510
gui	-8511
NING	-8512
clusive	-8513
thermal	-8514
decimal	-8515
LASS	-8516
btcoexist	-8517
PublicKey	-8518
ABORT	-8519
Times	-8520
▁DEFINE	-8521
xhci	-8522
▁va	-8523
2))	-8524
hes	-8525
▁cast	-8526
endl	-8527
Directive	-8528
uge	-8529
_3_	-8530
"]);	-8531
3>,	-8532
Compact	-8533
cw	-8534
Units	-8535
70_	-8536
RECORD	-8537
Changes	-8538
▁endl	-8539
LEX	-8540
olid	-8541
▁pan	-8542
UNIP	-8543
MSR	-8544
xs	-8545
iling	-8546
>("	-8547
calendar	-8548
UDP	-8549
supply	-8550
ons	-8551
pdu	-8552
btc	-8553
nextSibling	-8554
fit	-8555
▁ME	-8556
via	-8557
▁Item	-8558
EDGE	-8559
iounmap	-8560
Intr	-8561
kp	-8562
clearTimeout	-8563
Poly	-8564
advance	-8565
Assoc	-8566
BG	-8567
alter	-8568
▁iw	-8569
Partition	-8570
WH	-8571
Once	-8572
Maps	-8573
ARP	-8574
cade	-8575
▁amdgpu	-8576
outputs	-8577
▁BPF	-8578
pitch	-8579
:],	-8580
▁PHPExcel	-8581
▁(--	-8582
▁WLAN	-8583
tpg	-8584
Dirty	-8585
enumerable	-8586
▁try	-8587
▁dl	-8588
▁setUp	-8589
targets	-8590
brightness	-8591
icnet	-8592
rss	-8593
related	-8594
▁extract	-8595
▁drop	-8596
")));	-8597
▁bio	-8598
dns	-8599
senticnet	-8600
0:	-8601
23_	-8602
Gate	-8603
01_	-8604
▁Range	-8605
EVT	-8606
▁Model	-8607
refs	-8608
▁padding	-8609
▁unix	-8610
tri	-8611
EventHandler	-8612
:25	-8613
rie	-8614
Modifier	-8615
audit	-8616
DOUT	-8617
azure	-8618
]){	-8619
SUPER	-8620
AMS	-8621
▁children	-8622
Preview	-8623
Score	-8624
La	-8625
Than	-8626
▁DIS	-8627
loading	-8628
Executor	-8629
▁vo	-8630
▁names	-8631
vance	-8632
udp	-8633
shell	-8634
OpenLayers	-8635
▁##	-8636
PHYS	-8637
levels	-8638
riend	-8639
ISH	-8640
coords	-8641
EXIST	-8642
Replic	-8643
kv	-8644
GED	-8645
▁sched	-8646
CHO	-8647
▁SK	-8648
ceptor	-8649
Strict	-8650
serve	-8651
lis	-8652
Super	-8653
>()	-8654
ordered	-8655
runner	-8656
▁Ed	-8657
▁bc	-8658
multiply	-8659
CBitFieldMaskBit	-8660
ASC	-8661
grpc	-8662
▁Target	-8663
▁track	-8664
▁strto	-8665
▁ErrInvalid	-8666
▁chain	-8667
needs	-8668
],"	-8669
fib	-8670
},_	-8671
Dat	-8672
53	-8673
LER	-8674
TAB	-8675
▁iscsi	-8676
▁selection	-8677
shouldBe	-8678
coherent	-8679
HY	-8680
Sets	-8681
agger	-8682
▁lookup	-8683
DEST	-8684
tax	-8685
▁proxy	-8686
▁tile	-8687
Sender	-8688
▁cert	-8689
EDTLS	-8690
▁malloc	-8691
iio	-8692
BRO	-8693
smbus	-8694
jango	-8695
When	-8696
Band	-8697
fsm	-8698
[];	-8699
cases	-8700
craft	-8701
vn	-8702
Must	-8703
▁SIG	-8704
SENSOR	-8705
rank	-8706
Helpers	-8707
▁Temp	-8708
LINUX	-8709
▁fileDescriptor	-8710
Dead	-8711
oser	-8712
▁DeepCopy	-8713
iocb	-8714
▁Client	-8715
BasicBlock	-8716
uml	-8717
ucontrol	-8718
ACC	-8719
Zip	-8720
repo	-8721
FRO	-8722
cha	-8723
▁WR	-8724
")+"	-8725
mine	-8726
ple	-8727
ih	-8728
Words	-8729
▁8	-8730
ENCOD	-8731
▁IT	-8732
closed	-8733
writable	-8734
Discard	-8735
▁MMC	-8736
els	-8737
wifiex	-8738
quot	-8739
shake	-8740
steps	-8741
updated	-8742
32);	-8743
MPI	-8744
▁dyn	-8745
▁properties	-8746
VLAN	-8747
vga	-8748
SCHED	-8749
▁cmp	-8750
64.	-8751
▁VAL	-8752
35_	-8753
▁Form	-8754
instruction	-8755
▁phys	-8756
▁ent	-8757
incipal	-8758
recision	-8759
pixels	-8760
streams	-8761
")[	-8762
JU	-8763
nla	-8764
▁AP	-8765
ohci	-8766
calculate	-8767
Branch	-8768
cwd	-8769
▁CRY	-8770
chunks	-8771
amel	-8772
CodeMirror	-8773
moment	-8774
127	-8775
▁dummy	-8776
▁comment	-8777
▁Assembly	-8778
chg	-8779
LF	-8780
Known	-8781
backup	-8782
▁svc	-8783
TypeError	-8784
▁preg	-8785
Actor	-8786
Lif	-8787
DISABLED	-8788
created	-8789
ipi	-8790
getInt	-8791
srs	-8792
:40>,	-8793
ENOT	-8794
YA	-8795
ContentType	-8796
Minutes	-8797
CLONE	-8798
pie	-8799
Img	-8800
pick	-8801
SUPPLY	-8802
archive	-8803
▁ISD	-8804
Vars	-8805
2410_	-8806
samp	-8807
atype	-8808
imc	-8809
BIOC	-8810
aper	-8811
512	-8812
▁pg	-8813
Fast	-8814
CTS	-8815
rcmf	-8816
Gu	-8817
ology	-8818
Deployment	-8819
")))	-8820
0->	-8821
EAR	-8822
Spell	-8823
INLINE	-8824
ACL	-8825
▁emit	-8826
()+	-8827
▁ver	-8828
Running	-8829
snapshot	-8830
▁MLX	-8831
Ord	-8832
qd	-8833
Install	-8834
AIF	-8835
Callbacks	-8836
▁reason	-8837
two	-8838
QUO	-8839
TREE	-8840
Closed	-8841
ather	-8842
▁lin	-8843
▁reject	-8844
2400	-8845
aff	-8846
encoded	-8847
pcb	-8848
Mgmt	-8849
Dispatcher	-8850
States	-8851
hardware	-8852
SEQU	-8853
etype	-8854
IPC	-8855
packed	-8856
Mail	-8857
FilePath	-8858
PTION	-8859
Gr	-8860
ENDIAN	-8861
▁SPE	-8862
▁cleanup	-8863
counts	-8864
Serialization	-8865
CTR	-8866
PROTOCOL	-8867
▁sender	-8868
384	-8869
userAgent	-8870
sender	-8871
PW	-8872
Btn	-8873
SID	-8874
▁Handle	-8875
▁memory	-8876
▁Serial	-8877
rott	-8878
CTP	-8879
Stage	-8880
PROPERTY	-8881
sport	-8882
▁protocol	-8883
COMPLETE	-8884
measure	-8885
Generate	-8886
capacity	-8887
VIEW	-8888
Gradient	-8889
BAND	-8890
Composite	-8891
SETUP	-8892
▁td	-8893
▁rows	-8894
▁rd	-8895
▁PropTypes	-8896
▁nouveau	-8897
Instances	-8898
▁pixel	-8899
xdr	-8900
scb	-8901
79	-8902
CBC	-8903
51_	-8904
▁tick	-8905
timings	-8906
MADV	-8907
zen	-8908
▁Pl	-8909
lexer	-8910
udy	-8911
UMENT	-8912
▁nla	-8913
Ranges	-8914
▁wp	-8915
exc	-8916
sat	-8917
Person	-8918
ISR	-8919
▁ast	-8920
ario	-8921
cores	-8922
3->	-8923
aud	-8924
NAMESPACE	-8925
Completed	-8926
▁crc	-8927
Router	-8928
▁tb	-8929
mplementation	-8930
▁move	-8931
▁Local	-8932
ventory	-8933
subscribe	-8934
ALPHA	-8935
▁Pos	-8936
▁batch	-8937
Ms	-8938
▁Query	-8939
VA	-8940
▁Atom	-8941
+="	-8942
come	-8943
▁ri	-8944
IFA	-8945
▁SO	-8946
csum	-8947
▁tw	-8948
▁variable	-8949
must	-8950
keyword	-8951
RCC	-8952
Rectangle	-8953
ital	-8954
Org	-8955
Unt	-8956
"></	-8957
▁before	-8958
Filters	-8959
Ui	-8960
TACH	-8961
pmc	-8962
▁Double	-8963
Mount	-8964
86::	-8965
Uniform	-8966
ABI	-8967
Regs	-8968
CRYPTO	-8969
TRIES	-8970
▁ipv	-8971
supp	-8972
▁points	-8973
Mappings	-8974
dirs	-8975
msgs	-8976
UNI	-8977
weekdays	-8978
}});	-8979
▁speed	-8980
library	-8981
▁pix	-8982
alled	-8983
Printer	-8984
srv	-8985
umin	-8986
OLEAN	-8987
crit	-8988
FIER	-8989
notification	-8990
Vertical	-8991
▁buff	-8992
wchar	-8993
urse	-8994
xl	-8995
regions	-8996
IPv	-8997
coord	-8998
RULE	-8999
▁kernel	-9000
Cost	-9001
INTERVAL	-9002
wiphy	-9003
EqualTo	-9004
SPORT	-9005
Sem	-9006
▁xt	-9007
Quick	-9008
▁snprintf	-9009
requests	-9010
ugins	-9011
SWAP	-9012
▁vc	-9013
_25	-9014
uffle	-9015
gtk	-9016
MPEG	-9017
home	-9018
matched	-9019
Conversion	-9020
"}},	-9021
)>>	-9022
Many	-9023
▁Tag	-9024
blocksize	-9025
libc	-9026
MOUNT	-9027
▁Register	-9028
sci	-9029
Review	-9030
fv	-9031
▁media	-9032
MAJ	-9033
MNT	-9034
Compile	-9035
IntOverflow	-9036
Destination	-9037
dispose	-9038
▁single	-9039
ListOptions	-9040
iness	-9041
Multiple	-9042
▁DEF	-9043
▁matches	-9044
Operations	-9045
HIER	-9046
Phase	-9047
GroupName	-9048
▁layout	-9049
LW	-9050
hit	-9051
11>	-9052
"+"	-9053
Cipher	-9054
▁logger	-9055
31	-9056
Fore	-9057
Pat	-9058
▁bu	-9059
SIGNAL	-9060
GetValue	-9061
▁llvm	-9062
ETIME	-9063
rval	-9064
▁player	-9065
repr	-9066
roker	-9067
star	-9068
GetString	-9069
][$	-9070
ECD	-9071
DOC	-9072
getItem	-9073
some	-9074
▁pll	-9075
TEGRA	-9076
Spy	-9077
gamma	-9078
Nim	-9079
TIOCM	-9080
:(	-9081
POSITION	-9082
▁expression	-9083
Hw	-9084
DEPTH	-9085
LITE	-9086
pur	-9087
BM	-9088
cost	-9089
Attrs	-9090
eries	-9091
Annotations	-9092
PULL	-9093
general	-9094
()};	-9095
Deep	-9096
++];	-9097
▁peer	-9098
REAK	-9099
▁Convert	-9100
EventArgs	-9101
▁ASN	-9102
▁StringBuilder	-9103
parseFloat	-9104
TURE	-9105
▁Line	-9106
]&&	-9107
▁PI	-9108
▁10	-9109
EOP	-9110
xi	-9111
Submit	-9112
▁ctl	-9113
DataSource	-9114
64:	-9115
6;	-9116
Diag	-9117
Ve	-9118
▁TILE	-9119
7)	-9120
▁Call	-9121
FRAG	-9122
HAVE	-9123
pnt	-9124
▁HTML	-9125
character	-9126
Example	-9127
04_	-9128
UG	-9129
icmp	-9130
▁saved	-9131
}{	-9132
URIComponent	-9133
▁term	-9134
00,	-9135
Authentication	-9136
5(	-9137
Dock	-9138
EAGAIN	-9139
Google	-9140
▁drv	-9141
Offsets	-9142
$1.	-9143
oob	-9144
team	-9145
finished	-9146
lator	-9147
Received	-9148
more	-9149
compressed	-9150
seen	-9151
▁rep	-9152
ATTERN	-9153
answer	-9154
Computed	-9155
POINTER	-9156
▁hr	-9157
TF	-9158
COMPARE	-9159
fatal	-9160
(_.	-9161
▁down	-9162
Tok	-9163
▁required	-9164
eration	-9165
Linq	-9166
wil	-9167
▁[[	-9168
▁vert	-9169
Sink	-9170
REGION	-9171
termios	-9172
tokenize	-9173
▁insn	-9174
▁__(	-9175
daddr	-9176
▁remote	-9177
▁have	-9178
fuse	-9179
12>	-9180
_4_	-9181
ogram	-9182
▁bfin	-9183
Glyph	-9184
▁MSG	-9185
18>	-9186
▁TAG	-9187
acute	-9188
▁IW	-9189
▁non	-9190
Numeric	-9191
▁cont	-9192
modify	-9193
cture	-9194
SUSPEND	-9195
pinctrl	-9196
PART	-9197
▁RF	-9198
2));	-9199
sectors	-9200
rn	-9201
cpumask	-9202
LR	-9203
oa	-9204
▁Load	-9205
▁begin	-9206
sameValue	-9207
ACCEPT	-9208
▁DRV	-9209
INO	-9210
sorted	-9211
expires	-9212
missing	-9213
]==	-9214
fini	-9215
NIM	-9216
interfaces	-9217
comments	-9218
▁ee	-9219
URATION	-9220
Exports	-9221
▁FILE	-9222
ahead	-9223
omic	-9224
▁reference	-9225
▁typ	-9226
AH	-9227
iframe	-9228
matcher	-9229
PARENT	-9230
IsNull	-9231
IMM	-9232
▁ceph	-9233
cu	-9234
Conv	-9235
segments	-9236
Revision	-9237
Commands	-9238
hashCode	-9239
PROBE	-9240
napi	-9241
wkt	-9242
▁ide	-9243
XATTR	-9244
▁parameter	-9245
▁audio	-9246
5)	-9247
startswith	-9248
PRINTK	-9249
Stroke	-9250
Positions	-9251
TypeName	-9252
Plain	-9253
INITY	-9254
MOV	-9255
Behaviour	-9256
▁rf	-9257
Topic	-9258
mtx	-9259
ulp	-9260
Design	-9261
▁Max	-9262
▁ErrIntOverflow	-9263
idev	-9264
Criteria	-9265
Partial	-9266
getNext	-9267
ubi	-9268
msghdr	-9269
IDs	-9270
arb	-9271
▁Table	-9272
}.	-9273
▁STATE	-9274
Mag	-9275
YY	-9276
▁(;;)	-9277
WAKE	-9278
STY	-9279
xres	-9280
XIO	-9281
OPCODE	-9282
Toggle	-9283
PCIE	-9284
▁tuple	-9285
51	-9286
React	-9287
DIP	-9288
▁sensor	-9289
REACH	-9290
▁place	-9291
secure	-9292
▁ti	-9293
sockopt	-9294
▁Mult	-9295
glob	-9296
pxa	-9297
▁sctp	-9298
Sent	-9299
Ns	-9300
▁rhs	-9301
increment	-9302
▁DI	-9303
▁uv	-9304
FOUND	-9305
Msghdr	-9306
clr	-9307
prep	-9308
DDR	-9309
Channels	-9310
▁locale	-9311
▁elements	-9312
▁SP	-9313
▁network	-9314
▁execute	-9315
ello	-9316
mobile	-9317
DOMAIN	-9318
▁(/<	-9319
ipient	-9320
resolved	-9321
EFI	-9322
bcs	-9323
)<<	-9324
Informer	-9325
▁ve	-9326
▁USE	-9327
rient	-9328
coex	-9329
ini	-9330
offsetWidth	-9331
(;	-9332
▁SET	-9333
Tim	-9334
Detect	-9335
ancellationToken	-9336
Typed	-9337
5;	-9338
DISPLAY	-9339
Without	-9340
assertNotNull	-9341
getFull	-9342
▁inet	-9343
▁gr	-9344
Buttons	-9345
unrecognized	-9346
▁fake	-9347
▁ioaddr	-9348
GINE	-9349
softc	-9350
classList	-9351
':{'	-9352
clp	-9353
Pixels	-9354
))},	-9355
noop	-9356
3[	-9357
Conflict	-9358
live	-9359
undo	-9360
WriteString	-9361
600_	-9362
lank	-9363
confirm	-9364
",["	-9365
META	-9366
SEPAR	-9367
▁Response	-9368
).__	-9369
Immediate	-9370
unittest	-9371
SERVED	-9372
HID	-9373
NOTSUPP	-9374
wrapped	-9375
getContent	-9376
Inject	-9377
mapper	-9378
▁Tra	-9379
CONTENT	-9380
timezone	-9381
NonNull	-9382
▁MS	-9383
DNS	-9384
existing	-9385
▁1)	-9386
repository	-9387
amb	-9388
nor	-9389
▁alt	-9390
Catalog	-9391
▁weight	-9392
Capacity	-9393
Pages	-9394
BCM	-9395
readyState	-9396
decrypt	-9397
FieldElement	-9398
SuppressWarnings	-9399
_2(	-9400
Variables	-9401
BANK	-9402
effects	-9403
▁pub	-9404
ALOG	-9405
rds	-9406
DX	-9407
▁writer	-9408
▁sf	-9409
▁rtc	-9410
arf	-9411
Bridge	-9412
spu	-9413
▁entries	-9414
▁zero	-9415
▁widget	-9416
▁Entity	-9417
▁[])	-9418
)}},	-9419
MCS	-9420
▁matrix	-9421
DSS	-9422
getDate	-9423
Front	-9424
()-	-9425
HEIGHT	-9426
bz	-9427
ko	-9428
32;	-9429
▁{});	-9430
▁sta	-9431
▁pxa	-9432
),"	-9433
records	-9434
ird	-9435
registered	-9436
▁irqreturn	-9437
git	-9438
32:	-9439
4:	-9440
▁Thread	-9441
sprite	-9442
▁RawSockaddr	-9443
Nav	-9444
Frames	-9445
ASYNC	-9446
workqueue	-9447
▁radius	-9448
refcount	-9449
peri	-9450
rength	-9451
Infos	-9452
▁Descriptor	-9453
postIndex	-9454
MOVE	-9455
cross	-9456
vfs	-9457
AMD	-9458
AUX	-9459
writew	-9460
▁TEGRA	-9461
▁RTC	-9462
popr	-9463
ONCE	-9464
Curr	-9465
Aut	-9466
MAJOR	-9467
Adjust	-9468
tunnel	-9469
agp	-9470
bpp	-9471
enet	-9472
49	-9473
kbd	-9474
visitor	-9475
Cached	-9476
▁retry	-9477
getChild	-9478
▁Pa	-9479
Images	-9480
sur	-9481
FILL	-9482
Ajax	-9483
spdif	-9484
▁failed	-9485
tps	-9486
▁numpy	-9487
TypeOf	-9488
Press	-9489
▁blob	-9490
Reserved	-9491
Asc	-9492
▁ioc	-9493
cmap	-9494
metric	-9495
bor	-9496
igen	-9497
black	-9498
observer	-9499
getNum	-9500
bond	-9501
Under	-9502
IDI	-9503
Boot	-9504
sysctl	-9505
WriteLine	-9506
▁grid	-9507
▁canvas	-9508
weights	-9509
▁soc	-9510
gfx	-9511
Dao	-9512
▁generic	-9513
Extended	-9514
Bin	-9515
ippet	-9516
fcs	-9517
azy	-9518
cljs	-9519
pgd	-9520
"><	-9521
jump	-9522
pkey	-9523
Plot	-9524
Observable	-9525
Targets	-9526
▁dump	-9527
GLOBALS	-9528
ocket	-9529
▁fix	-9530
▁OPEN	-9531
▁ft	-9532
xor	-9533
▁PER	-9534
ownerDocument	-9535
Translation	-9536
▁package	-9537
cop	-9538
){"	-9539
NEED	-9540
*)&	-9541
tasklet	-9542
halt	-9543
PAIR	-9544
▁cluster	-9545
42_	-9546
REAL	-9547
strn	-9548
▁recv	-9549
▁bnx	-9550
UC	-9551
rena	-9552
PAUSE	-9553
Bounding	-9554
leds	-9555
parms	-9556
▁member	-9557
phydev	-9558
UNC	-9559
fbi	-9560
battery	-9561
25840_	-9562
▁bh	-9563
*>	-9564
DCT	-9565
lport	-9566
rename	-9567
Swap	-9568
poss	-9569
constraints	-9570
:253>,	-9571
Entities	-9572
reo	-9573
mains	-9574
ceil	-9575
▁google	-9576
did	-9577
eof	-9578
pdf	-9579
▁Module	-9580
Nb	-9581
REPORT	-9582
▁PyObject	-9583
▁gfp	-9584
▁vma	-9585
SSI	-9586
yres	-9587
klass	-9588
regexp	-9589
▁End	-9590
▁push	-9591
Readable	-9592
Like	-9593
▁rot	-9594
▁Xml	-9595
pref	-9596
enqueue	-9597
wise	-9598
▁SM	-9599
para	-9600
pipeline	-9601
▁esc	-9602
▁zone	-9603
▁cookie	-9604
▁led	-9605
Predicate	-9606
guard	-9607
tabs	-9608
Toolbar	-9609
demod	-9610
▁ixgbe	-9611
accum	-9612
PKEY	-9613
beat	-9614
CHK	-9615
14_	-9616
EPERM	-9617
62_	-9618
vidioc	-9619
▁role	-9620
▁invalid	-9621
8:	-9622
MSM	-9623
yo	-9624
▁series	-9625
▁(($	-9626
hv	-9627
ONSE	-9628
exponent	-9629
WD	-9630
DIGIT	-9631
EOPNOTSUPP	-9632
Hub	-9633
Until	-9634
broadcast	-9635
ROUT	-9636
llseek	-9637
▁ignore	-9638
ipa	-9639
▁gspca	-9640
boxes	-9641
concurrent	-9642
LATE	-9643
▁Auth	-9644
invalidate	-9645
LOOK	-9646
dwc	-9647
▁PF	-9648
lies	-9649
Indicator	-9650
22_	-9651
ErrCode	-9652
IRDA	-9653
▁origin	-9654
▁game	-9655
multiple	-9656
▁MP	-9657
▁compat	-9658
rk	-9659
Logging	-9660
accession	-9661
processed	-9662
PENDING	-9663
Permissions	-9664
▁Graph	-9665
LLOW	-9666
COVER	-9667
wi	-9668
▁watch	-9669
StringDesc	-9670
returnValue	-9671
synchronized	-9672
)$	-9673
▁rules	-9674
825	-9675
▁FIX	-9676
LN	-9677
adapt	-9678
plt	-9679
conditions	-9680
ox	-9681
bfin	-9682
DIF	-9683
EXCEPTION	-9684
▁cn	-9685
rst	-9686
FET	-9687
price	-9688
STYLE	-9689
ADAPTER	-9690
utter	-9691
startsWith	-9692
ula	-9693
▁storage	-9694
UAL	-9695
Slider	-9696
▁patch	-9697
}>	-9698
▁engine	-9699
aliases	-9700
YNO	-9701
dcb	-9702
Started	-9703
Bracket	-9704
:'/	-9705
▁Custom	-9706
SAFE	-9707
ENXIO	-9708
KEYCTL	-9709
commons	-9710
SPECI	-9711
VARI	-9712
abb	-9713
Assembly	-9714
MAIL	-9715
slider	-9716
mes	-9717
lus	-9718
errs	-9719
dead	-9720
rerror	-9721
1=	-9722
▁es	-9723
▁margin	-9724
ppc	-9725
ERA	-9726
counters	-9727
Receiver	-9728
Prod	-9729
sink	-9730
rozen	-9731
▁pred	-9732
coeff	-9733
supports	-9734
Particle	-9735
collapse	-9736
enario	-9737
RCV	-9738
insic	-9739
▁clip	-9740
"]=	-9741
Been	-9742
▁gfs	-9743
Users	-9744
▁mid	-9745
Der	-9746
exceptions	-9747
Increment	-9748
59	-9749
▁system	-9750
:'.	-9751
DIM	-9752
eon	-9753
atee	-9754
Infinity	-9755
"><?	-9756
▁$("	-9757
▁SYS	-9758
addrs	-9759
allocated	-9760
▁MI	-9761
antic	-9762
defs	-9763
ValueOf	-9764
ALLOW	-9765
▁cv	-9766
stm	-9767
▁Frame	-9768
USAGE	-9769
▁route	-9770
▁lm	-9771
usters	-9772
▁Fil	-9773
tegra	-9774
MINOR	-9775
tot	-9776
added	-9777
▁django	-9778
setattr	-9779
▁Com	-9780
▁IIO	-9781
▁xen	-9782
NumberOf	-9783
formatter	-9784
▁Iter	-9785
det	-9786
DISC	-9787
Orient	-9788
started	-9789
JNI	-9790
currentTime	-9791
bcm	-9792
sections	-9793
:70	-9794
▁tensor	-9795
Links	-9796
Stride	-9797
▁Cl	-9798
FIRM	-9799
getLogger	-9800
▁Window	-9801
Void	-9802
▁msglen	-9803
configurable	-9804
Behavior	-9805
handled	-9806
phone	-9807
06	-9808
▁Group	-9809
gdb	-9810
Redirect	-9811
SMP	-9812
statusCode	-9813
Hour	-9814
ilation	-9815
flt	-9816
gpr	-9817
gap	-9818
▁wrapper	-9819
mkdir	-9820
dequeue	-9821
XA	-9822
▁rr	-9823
FIC	-9824
capability	-9825
WRAP	-9826
▁initialize	-9827
smb	-9828
'][$	-9829
Socklen	-9830
Navigation	-9831
BREAK	-9832
DONT	-9833
INED	-9834
▁flow	-9835
ICAL	-9836
autorest	-9837
nullptr	-9838
ytest	-9839
isObject	-9840
iscsi	-9841
pathname	-9842
SCO	-9843
▁fh	-9844
gogo	-9845
publish	-9846
keywords	-9847
navigator	-9848
HU	-9849
asset	-9850
stit	-9851
encil	-9852
Updated	-9853
gsl	-9854
▁MASK	-9855
article	-9856
restrict	-9857
strl	-9858
IOD	-9859
▁SIZE	-9860
terministic	-9861
▁Address	-9862
what	-9863
"],"	-9864
")).	-9865
uches	-9866
▁Start	-9867
▁dlm	-9868
vertical	-9869
▁TCP	-9870
▁reply	-9871
'>,<	-9872
SHUTDOWN	-9873
MPP	-9874
RGBA	-9875
sip	-9876
COUNTER	-9877
▁feature	-9878
Configure	-9879
flatten	-9880
PAN	-9881
inb	-9882
▁qlcnic	-9883
eeded	-9884
idr	-9885
▁labels	-9886
▁MV	-9887
▁accept	-9888
IFMT	-9889
acquire	-9890
EPOLL	-9891
▁where	-9892
▁flush	-9893
alancer	-9894
getB	-9895
lineTo	-9896
Finder	-9897
arse	-9898
▁gc	-9899
DescriptorProto	-9900
routes	-9901
▁explode	-9902
[]{	-9903
RELEASE	-9904
HDMI	-9905
PATTERN	-9906
▁sim	-9907
Preferences	-9908
raft	-9909
inator	-9910
coordin	-9911
▁((*	-9912
▁bn	-9913
viewport	-9914
Flash	-9915
freeze	-9916
HttpRequest	-9917
Termin	-9918
▁RO	-9919
▁saa	-9920
cep	-9921
TAIL	-9922
Ring	-9923
Coords	-9924
63_	-9925
acters	-9926
StringBuilder	-9927
SIGNED	-9928
qt	-9929
▁READ	-9930
▁cor	-9931
Connected	-9932
LDO	-9933
StringRef	-9934
kref	-9935
fclose	-9936
fade	-9937
▁im	-9938
CharCode	-9939
▁PS	-9940
"+(	-9941
▁Syntax	-9942
tap	-9943
Clause	-9944
edges	-9945
FROG	-9946
readable	-9947
▁Server	-9948
▁Version	-9949
rink	-9950
▁walk	-9951
▁bf	-9952
▁border	-9953
Scheduler	-9954
▁center	-9955
▁Mod	-9956
oy	-9957
}}}	-9958
beans	-9959
inp	-9960
Live	-9961
getMock	-9962
UTEX	-9963
NOTIFY	-9964
8);	-9965
▁YY	-9966
prox	-9967
lf	-9968
atar	-9969
▁binary	-9970
▁gid	-9971
Unary	-9972
riptions	-9973
sal	-9974
pendent	-9975
ORM	-9976
BF	-9977
▁frag	-9978
uinfo	-9979
constants	-9980
STP	-9981
▁AMD	-9982
Bindings	-9983
getUser	-9984
TG	-9985
prompt	-9986
Visit	-9987
BSS	-9988
ya	-9989
▁mouse	-9990
fixture	-9991
▁screen	-9992
Idle	-9993
etric	-9994
EEPROM	-9995
RLIMIT	-9996
filepath	-9997
EEK	-9998
▁nto	-9999
mbx	-10000
VERTI	-10001
lineno	-10002
▁({	-10003
Repeat	-10004
hasNext	-10005
BOOLEAN	-10006
arator	-10007
ousel	-10008
NEG	-10009
discard	-10010
views	-10011
received	-10012
lems	-10013
IDGE	-10014
apsed	-10015
▁$$	-10016
Pipeline	-10017
SEPARATOR	-10018
github	-10019
rh	-10020
EG	-10021
Opacity	-10022
▁kv	-10023
BP	-10024
OPTIONS	-10025
Where	-10026
bars	-10027
frags	-10028
fre	-10029
)})	-10030
TD	-10031
usted	-10032
modified	-10033
▁ha	-10034
▁CHIP	-10035
Boundary	-10036
ONENT	-10037
ascii	-10038
usec	-10039
CAPTURE	-10040
Att	-10041
lied	-10042
▁EC	-10043
SIO	-10044
▁DATA	-10045
standard	-10046
Tables	-10047
fld	-10048
scrollLeft	-10049
ym	-10050
▁distance	-10051
▁chr	-10052
btrfs	-10053
sctp	-10054
mtime	-10055
bitr	-10056
ccw	-10057
Streams	-10058
SIOCSIF	-10059
_11	-10060
Quest	-10061
cause	-10062
printStackTrace	-10063
ros	-10064
Prob	-10065
agraph	-10066
ADER	-10067
TRL	-10068
Locked	-10069
▁Throw	-10070
▁cancel	-10071
▁Format	-10072
2]	-10073
was	-10074
))),	-10075
Customer	-10076
WC	-10077
lon	-10078
filtered	-10079
13>	-10080
ifications	-10081
RSP	-10082
Keyboard	-10083
ULATOR	-10084
▁unicode	-10085
CHILD	-10086
multicast	-10087
docs	-10088
had	-10089
TRACK	-10090
▁hook	-10091
Utilities	-10092
▁API	-10093
MLX	-10094
apps	-10095
SiS	-10096
quota	-10097
saddr	-10098
LITY	-10099
▁gf	-10100
clen	-10101
TK	-10102
verity	-10103
offsetof	-10104
Serialize	-10105
▁SECTION	-10106
sam	-10107
mute	-10108
▁CONST	-10109
thrift	-10110
Pkt	-10111
▁df	-10112
Plural	-10113
Sleep	-10114
Embed	-10115
▁ut	-10116
RESERVED	-10117
Archive	-10118
half	-10119
▁vmw	-10120
setUp	-10121
quality	-10122
tes	-10123
country	-10124
▁Plugin	-10125
YNOS	-10126
▁SER	-10127
▁Rect	-10128
▁SZ	-10129
_100	-10130
gic	-10131
DLC	-10132
300	-10133
watchdog	-10134
Mul	-10135
▁lower	-10136
adb	-10137
nbytes	-10138
och	-10139
stopPropagation	-10140
ubble	-10141
etween	-10142
▁deterministic	-10143
▁tid	-10144
umbn	-10145
819	-10146
getMonth	-10147
umbnail	-10148
Digit	-10149
VEC	-10150
Comparator	-10151
possible	-10152
ipath	-10153
Encoded	-10154
miss	-10155
Hit	-10156
▁account	-10157
▁Process	-10158
pmlme	-10159
micro	-10160
']),	-10161
802_	-10162
Buffers	-10163
setProperty	-10164
mfc	-10165
ji	-10166
Dial	-10167
72	-10168
▁mpc	-10169
deps	-10170
▁rtw	-10171
rmi	-10172
MODEL	-10173
▁POWER	-10174
Middle	-10175
Cmp	-10176
basename	-10177
isor	-10178
viders	-10179
▁UP	-10180
▁AB	-10181
Calls	-10182
serializer	-10183
AMP	-10184
backlight	-10185
SAVE	-10186
▁controller	-10187
scaled	-10188
▁DIV	-10189
KP	-10190
SHOW	-10191
RESPONSE	-10192
nsec	-10193
▁utf	-10194
ssp	-10195
NoError	-10196
RUNNING	-10197
FileInfo	-10198
ensity	-10199
▁CSR	-10200
PARSE	-10201
PPP	-10202
Health	-10203
Hist	-10204
raction	-10205
Added	-10206
atable	-10207
bounce	-10208
minimum	-10209
"})	-10210
▁year	-10211
Mime	-10212
needed	-10213
▁Current	-10214
Geo	-10215
completed	-10216
changes	-10217
rol	-10218
mpu	-10219
▁enabled	-10220
Unmarshall	-10221
rottle	-10222
▁timestamp	-10223
FCH	-10224
▁NT	-10225
balance	-10226
rnd	-10227
Dimensions	-10228
ctlr	-10229
▁Page	-10230
▁MII	-10231
▁unless	-10232
quent	-10233
▁join	-10234
uni	-10235
▁cam	-10236
7.	-10237
BLANK	-10238
isNull	-10239
Fprintf	-10240
Regexp	-10241
▁cd	-10242
Radio	-10243
axes	-10244
▁ProtoMessage	-10245
digits	-10246
▁Per	-10247
Collision	-10248
▁bs	-10249
Cat	-10250
smi	-10251
▁SQ	-10252
diction	-10253
UMN	-10254
ICT	-10255
/(	-10256
mpling	-10257
cker	-10258
sembler	-10259
▁GEN	-10260
demux	-10261
upted	-10262
anted	-10263
DSI	-10264
metav	-10265
}()	-10266
LLVM	-10267
▁language	-10268
accel	-10269
TAGE	-10270
phba	-10271
Samples	-10272
1)),	-10273
mous	-10274
IsValid	-10275
▁Expression	-10276
IQ	-10277
▁period	-10278
presentation	-10279
AU	-10280
VK	-10281
Half	-10282
Stamp	-10283
CultureInfo	-10284
▁""	-10285
▁rp	-10286
▁tail	-10287
Cls	-10288
question	-10289
hsotg	-10290
iven	-10291
▁HID	-10292
▁bat	-10293
▁RC	-10294
Resolution	-10295
▁fetch	-10296
▁ov	-10297
1));	-10298
1()	-10299
PrivateKey	-10300
uous	-10301
NIC	-10302
▁fileName	-10303
startup	-10304
Exact	-10305
Closing	-10306
▁SOCK	-10307
▁Vis	-10308
ZIP	-10309
alignment	-10310
aging	-10311
vok	-10312
DateFormat	-10313
▁tv	-10314
Brush	-10315
environ	-10316
▁compute	-10317
bssid	-10318
RegisterType	-10319
Management	-10320
▁PC	-10321
▁tor	-10322
▁operation	-10323
▁NF	-10324
Kit	-10325
PRIM	-10326
BigInteger	-10327
GPR	-10328
Interpol	-10329
gers	-10330
▁NOT	-10331
▁Tree	-10332
archy	-10333
Lexer	-10334
Chat	-10335
▁segment	-10336
acing	-10337
=><	-10338
wave	-10339
uk	-10340
credentials	-10341
lbl	-10342
accessor	-10343
▁(0)	-10344
▁Sign	-10345
▁16	-10346
uator	-10347
offsetHeight	-10348
pings	-10349
loff	-10350
cas	-10351
apon	-10352
▁Pack	-10353
Fixture	-10354
ams	-10355
Hover	-10356
MQ	-10357
APH	-10358
"||	-10359
▁CL	-10360
▁inb	-10361
reload	-10362
TYPES	-10363
lastIndexOf	-10364
▁Lay	-10365
opaque	-10366
GetType	-10367
IWL	-10368
▁qla	-10369
▁CRC	-10370
▁fm	-10371
SLAVE	-10372
LIM	-10373
wk	-10374
BIAS	-10375
jav	-10376
entities	-10377
▁oct	-10378
aead	-10379
Art	-10380
maximum	-10381
▁Sup	-10382
transp	-10383
zeros	-10384
Inserted	-10385
▁hp	-10386
FileSystem	-10387
guest	-10388
nh	-10389
mysql	-10390
▁opcode	-10391
circ	-10392
ordinal	-10393
▁MEM	-10394
▁!$	-10395
ISP	-10396
▁}}	-10397
ifp	-10398
2=	-10399
srb	-10400
▁(~	-10401
PRODU	-10402
oon	-10403
Wnd	-10404
THRESHOLD	-10405
Reporter	-10406
Orientation	-10407
dark	-10408
Signed	-10409
nprintf	-10410
nonce	-10411
▁&$	-10412
RP	-10413
iator	-10414
ACTIV	-10415
▁UI	-10416
ENGINE	-10417
AppCompat	-10418
CQ	-10419
plain	-10420
EST	-10421
▁LP	-10422
BROAD	-10423
SMC	-10424
▁mach	-10425
RADEON	-10426
correct	-10427
atern	-10428
ifact	-10429
Sources	-10430
dsa	-10431
aggreg	-10432
Integr	-10433
nump	-10434
resid	-10435
▁((((	-10436
vfe	-10437
Cb	-10438
0))	-10439
:'-	-10440
▁PLL	-10441
URITY	-10442
>>>	-10443
HOP	-10444
▁Match	-10445
▁Be	-10446
While	-10447
▁hasattr	-10448
▁MVT	-10449
TOM	-10450
▁provider	-10451
▁mk	-10452
CONTIN	-10453
chrome	-10454
▁Application	-10455
▁DO	-10456
ROUTE	-10457
905	-10458
MMU	-10459
390_	-10460
Hy	-10461
terminal	-10462
Joint	-10463
managed	-10464
▁Import	-10465
SEQUENCE	-10466
▁VT	-10467
criter	-10468
▁TO	-10469
atalen	-10470
qr	-10471
▁master	-10472
NOC	-10473
▁pk	-10474
Pur	-10475
▁_("	-10476
pageX	-10477
Bag	-10478
apr	-10479
oh	-10480
▁exynos	-10481
▁vx	-10482
▁finish	-10483
]?	-10484
saa	-10485
Issue	-10486
mw	-10487
smarty	-10488
▁PIN	-10489
vha	-10490
REP	-10491
WithError	-10492
▁ig	-10493
▁boost	-10494
visibility	-10495
▁logging	-10496
▁Ac	-10497
ITER	-10498
smt	-10499
DAG	-10500
lst	-10501
srq	-10502
Throws	-10503
rieve	-10504
onder	-10505
rase	-10506
argp	-10507
//	-10508
dmx	-10509
Freq	-10510
▁Build	-10511
▁DRI	-10512
▁Ver	-10513
▁VER	-10514
dib	-10515
openssl	-10516
Connector	-10517
ells	-10518
Intn	-10519
▁Has	-10520
Writable	-10521
▁sov	-10522
▁delegate	-10523
Foot	-10524
ATM	-10525
setData	-10526
RECTION	-10527
▁man	-10528
▁CG	-10529
FALL	-10530
▁rq	-10531
anization	-10532
Plus	-10533
synth	-10534
hours	-10535
environment	-10536
stand	-10537
Negative	-10538
andbox	-10539
▁area	-10540
ned	-10541
99	-10542
outil	-10543
IgnoreCase	-10544
▁}),	-10545
))]	-10546
jb	-10547
▁signal	-10548
IGNORE	-10549
unaligned	-10550
xd	-10551
EventType	-10552
kzalloc	-10553
▁setTimeout	-10554
▁filepath	-10555
COEFF	-10556
mclk	-10557
ATFORM	-10558
Fin	-10559
Polygon	-10560
VIRT	-10561
Assignment	-10562
▁nbytes	-10563
:80>,	-10564
]++;	-10565
maph	-10566
rbd	-10567
Initialized	-10568
Vol	-10569
resolver	-10570
outfile	-10571
middle	-10572
ABS	-10573
ycl	-10574
setStyle	-10575
VECTOR	-10576
SYM	-10577
▁datetime	-10578
▁{})	-10579
ittle	-10580
TILE	-10581
FAT	-10582
NimStringDesc	-10583
▁verbose	-10584
8350_	-10585
▁CM	-10586
MBB	-10587
')))	-10588
*)(	-10589
scheduler	-10590
INTC	-10591
}]	-10592
nop	-10593
Mov	-10594
▁nilfs	-10595
▁EE	-10596
pied	-10597
JIT	-10598
▁verify	-10599
},"	-10600
urls	-10601
allen	-10602
MCR	-10603
hostdata	-10604
Formats	-10605
Velocity	-10606
nvkm	-10607
BufferSize	-10608
FETCH	-10609
TAL	-10610
ethtool	-10611
DiscardUnknown	-10612
UCH	-10613
Rune	-10614
Fl	-10615
▁ED	-10616
ENDPOINT	-10617
▁inf	-10618
6);	-10619
THDR	-10620
▁alg	-10621
XFER	-10622
▁Java	-10623
▁htons	-10624
▁scr	-10625
Compute	-10626
Viewport	-10627
pageY	-10628
Immutable	-10629
LastError	-10630
▁DRIVER	-10631
REQUIRE	-10632
maphore	-10633
▁normalize	-10634
YTE	-10635
▁Len	-10636
ClickListener	-10637
Crypto	-10638
Regist	-10639
Distr	-10640
pars	-10641
elist	-10642
▁CP	-10643
Paren	-10644
Define	-10645
700	-10646
calib	-10647
elseif	-10648
POOL	-10649
windows	-10650
SURE	-10651
orary	-10652
MISS	-10653
▁aa	-10654
231	-10655
▁ubifs	-10656
▁KERN	-10657
SECTION	-10658
▁profile	-10659
Hz	-10660
BOSE	-10661
velope	-10662
person	-10663
XFS	-10664
▁\}	-10665
▁INVALID	-10666
▁nd	-10667
▁atmel	-10668
IOS	-10669
gable	-10670
MetaData	-10671
▁reser	-10672
nfc	-10673
pch	-10674
Fire	-10675
▁board	-10676
Blend	-10677
▁CA	-10678
lij	-10679
EO	-10680
thresh	-10681
▁big	-10682
extended	-10683
▁qib	-10684
Tw	-10685
Cross	-10686
Deferred	-10687
ComponentModel	-10688
ITIVE	-10689
▁expand	-10690
llumin	-10691
▁EFI	-10692
ires	-10693
▁CUR	-10694
▁suffix	-10695
Manifest	-10696
skin	-10697
alive	-10698
elm	-10699
▁DS	-10700
OPTS	-10701
ied	-10702
Seek	-10703
::__	-10704
assertEq	-10705
MENU	-10706
>/))	-10707
uby	-10708
)}),	-10709
ecycle	-10710
▁Output	-10711
rhs	-10712
Pie	-10713
cdc	-10714
today	-10715
capabilities	-10716
{}{	-10717
Supp	-10718
getSelection	-10719
members	-10720
YUV	-10721
faces	-10722
▁Pre	-10723
IFS	-10724
izz	-10725
dims	-10726
declar	-10727
Linked	-10728
▁upper	-10729
setName	-10730
kmem	-10731
trip	-10732
uda	-10733
beforeEach	-10734
ana	-10735
Hi	-10736
Throwable	-10737
reground	-10738
PAL	-10739
edac	-10740
▁COM	-10741
textContent	-10742
morph	-10743
($(	-10744
mips	-10745
zi	-10746
▁SEC	-10747
Sorted	-10748
▁au	-10749
REN	-10750
Alt	-10751
pB	-10752
ascript	-10753
horizontal	-10754
110	-10755
▁substream	-10756
PRIO	-10757
esc	-10758
erp	-10759
_32_	-10760
devc	-10761
Backup	-10762
Share	-10763
uniform	-10764
pcmcia	-10765
Walk	-10766
Logical	-10767
Recv	-10768
LOOKUP	-10769
hwif	-10770
▁Matrix	-10771
mailbox	-10772
SKIP	-10773
usic	-10774
▁policy	-10775
▁"""	-10776
▁volume	-10777
▁PP	-10778
MANA	-10779
_3,	-10780
WB	-10781
tion	-10782
queued	-10783
upal	-10784
take	-10785
']:	-10786
▁FC	-10787
PNG	-10788
ORIG	-10789
locks	-10790
67	-10791
irector	-10792
▁ATH	-10793
▁sha	-10794
parer	-10795
PLIC	-10796
▁nn	-10797
▁dn	-10798
WEB	-10799
Interrupt	-10800
]):	-10801
Utility	-10802
COMMON	-10803
Whitespace	-10804
<>(	-10805
quo	-10806
")){	-10807
GENERIC	-10808
ARC	-10809
▁FL	-10810
▁github	-10811
Finished	-10812
3),	-10813
rme	-10814
subsys	-10815
HEX	-10816
marks	-10817
resc	-10818
Matching	-10819
minute	-10820
lluminate	-10821
HEL	-10822
▁ge	-10823
▁diag	-10824
hest	-10825
Definitions	-10826
Members	-10827
▁pv	-10828
:38	-10829
Sa	-10830
VOLTAGE	-10831
PERIOD	-10832
▁ssl	-10833
Home	-10834
WIFI	-10835
noise	-10836
()];	-10837
Threading	-10838
blend	-10839
STOR	-10840
▁chart	-10841
TTL	-10842
fallback	-10843
▁release	-10844
ftp	-10845
aternion	-10846
ANGE	-10847
Android	-10848
OutOf	-10849
syntax	-10850
getAll	-10851
NLGRP	-10852
▁Search	-10853
TextString	-10854
going	-10855
paddr	-10856
ppos	-10857
▁LM	-10858
ERAL	-10859
▁rcu	-10860
bbox	-10861
▁MPI	-10862
Setter	-10863
requested	-10864
62	-10865
authentic	-10866
▁rdev	-10867
▁tyObject	-10868
▁smp	-10869
}))	-10870
LengthGenerated	-10871
CERT	-10872
Modify	-10873
dmac	-10874
;){	-10875
Mer	-10876
Lister	-10877
chn	-10878
Assertion	-10879
lev	-10880
;(	-10881
▁RADEON	-10882
EF	-10883
celer	-10884
symbols	-10885
bmp	-10886
ye	-10887
▁panel	-10888
57	-10889
▁US	-10890
FONT	-10891
choice	-10892
Viewer	-10893
hdw	-10894
818	-10895
▁URL	-10896
carrier	-10897
Creation	-10898
HOO	-10899
flex	-10900
▁uuid	-10901
▁orient	-10902
osd	-10903
Processing	-10904
Logic	-10905
"(	-10906
IntPtr	-10907
DIAG	-10908
zIndex	-10909
Registration	-10910
Versions	-10911
Cycle	-10912
integr	-10913
computed	-10914
fontSize	-10915
▁parseFloat	-10916
wlan	-10917
pared	-10918
▁smb	-10919
▁carry	-10920
vot	-10921
▁CRYP	-10922
▁Basic	-10923
Serializable	-10924
ITLE	-10925
minutes	-10926
▁Throwable	-10927
asis	-10928
▁Work	-10929
LU	-10930
mcast	-10931
initcall	-10932
Digits	-10933
NX	-10934
COOK	-10935
orientation	-10936
invert	-10937
▁ai	-10938
▁bitmap	-10939
(*(	-10940
▁shared	-10941
Returns	-10942
▁CURL	-10943
▁alias	-10944
ENCODING	-10945
LIGHT	-10946
rans	-10947
Major	-10948
Uid	-10949
ince	-10950
HOR	-10951
▁PG	-10952
retch	-10953
UNSUPPORTED	-10954
▁tim	-10955
PRINTF	-10956
ToArray	-10957
allenge	-10958
MUTE	-10959
ansion	-10960
▁Access	-10961
=='	-10962
slash	-10963
({"	-10964
▁sector	-10965
SECURITY	-10966
▁NE	-10967
asList	-10968
CHAIN	-10969
Prevented	-10970
TextView	-10971
instances	-10972
!=="	-10973
ECC	-10974
:35	-10975
duplex	-10976
Office	-10977
Gateway	-10978
'],['	-10979
burst	-10980
Milliseconds	-10981
strdup	-10982
▁ren	-10983
efi	-10984
webkit	-10985
▁detail	-10986
Phone	-10987
MEMBERSH	-10988
cqe	-10989
Globals	-10990
089	-10991
pyx	-10992
erce	-10993
▁NotImplemented	-10994
▁hci	-10995
rts	-10996
ISE	-10997
Hooks	-10998
uring	-10999
▁getattr	-11000
▁HDMI	-11001
subscription	-11002
Segments	-11003
uspend	-11004
Lite	-11005
▁EVENT	-11006
inspect	-11007
▁progress	-11008
cov	-11009
)])	-11010
▁angle	-11011
TextNode	-11012
▁texture	-11013
orthand	-11014
compressor	-11015
LPC	-11016
▁DC	-11017
lazy	-11018
▁spu	-11019
OPENSSL	-11020
▁sorted	-11021
▁bucket	-11022
persistence	-11023
warnings	-11024
ARB	-11025
sgl	-11026
MY	-11027
▁Document	-11028
mooth	-11029
Hal	-11030
▁stm	-11031
Sur	-11032
Unsigned	-11033
Spin	-11034
Confirm	-11035
▁af	-11036
ssh	-11037
Vertices	-11038
edid	-11039
lru	-11040
Buffered	-11041
achable	-11042
OneOf	-11043
▁bounds	-11044
logs	-11045
calloc	-11046
May	-11047
MCAST	-11048
ROLL	-11049
▁fsl	-11050
"=>"	-11051
artifact	-11052
']->	-11053
ritical	-11054
▁Select	-11055
writereg	-11056
boundary	-11057
evsel	-11058
dpm	-11059
lvl	-11060
▁mix	-11061
frac	-11062
TIAL	-11063
▁tun	-11064
orb	-11065
Plane	-11066
▁Media	-11067
CHUNK	-11068
nio	-11069
▁MODE	-11070
TW	-11071
Jump	-11072
KEEP	-11073
COMMENT	-11074
▁used	-11075
INFINITY	-11076
Tokenizer	-11077
[:,	-11078
▁metav	-11079
Flat	-11080
▁FM	-11081
!="	-11082
stopped	-11083
ComboBox	-11084
gree	-11085
htable	-11086
Plugins	-11087
Encrypt	-11088
cifs	-11089
Statistics	-11090
getX	-11091
Azure	-11092
ADMIN	-11093
pcr	-11094
Dif	-11095
▁AES	-11096
artbeat	-11097
indicator	-11098
Perf	-11099
fpu	-11100
▁DL	-11101
PROGRESS	-11102
PRODUCT	-11103
meth	-11104
Less	-11105
NAMIC	-11106
azureus	-11107
BSD	-11108
trib	-11109
wmi	-11110
0899_	-11111
Indexes	-11112
]])	-11113
[][]	-11114
Pt	-11115
TIMING	-11116
soap	-11117
Odm	-11118
▁validator	-11119
atm	-11120
▁TM	-11121
DLL	-11122
PAY	-11123
Lim	-11124
coverage	-11125
GRAPH	-11126
▁Assert	-11127
Dataset	-11128
PRESENT	-11129
▁COL	-11130
▁OPT	-11131
INSERT	-11132
▁LED	-11133
tre	-11134
ROUP	-11135
Based	-11136
NY	-11137
fromCharCode	-11138
exact	-11139
zr	-11140
▁moment	-11141
portal	-11142
Creator	-11143
yp	-11144
FileSync	-11145
ifor	-11146
▁RS	-11147
▁WA	-11148
MUTEX	-11149
Balance	-11150
GEST	-11151
checkbox	-11152
memo	-11153
▁mutex	-11154
▁ENABLE	-11155
clients	-11156
▁switch	-11157
AsString	-11158
addListener	-11159
sysIPV	-11160
COMPONENT	-11161
obile	-11162
▁amount	-11163
extr	-11164
▁PK	-11165
Repo	-11166
escaped	-11167
BW	-11168
getPath	-11169
ampler	-11170
shm	-11171
▁poll	-11172
roma	-11173
populate	-11174
oprot	-11175
53_	-11176
serio	-11177
unct	-11178
follow	-11179
phdr	-11180
▁defaults	-11181
interpol	-11182
▁quote	-11183
Repeated	-11184
pnp	-11185
PROFILE	-11186
anitize	-11187
[$0	-11188
imate	-11189
deploy	-11190
stype	-11191
*((	-11192
dropdown	-11193
}]);	-11194
prepend	-11195
latency	-11196
charger	-11197
addir	-11198
▁mesh	-11199
▁wr	-11200
CHR	-11201
elems	-11202
(\	-11203
▁OS	-11204
dojo	-11205
▁Constant	-11206
SKB	-11207
▁Back	-11208
coef	-11209
pDM	-11210
Timeval	-11211
UNIPER	-11212
QUnit	-11213
▁pte	-11214
globals	-11215
Removed	-11216
▁DEV	-11217
isString	-11218
▁cons	-11219
Selfer	-11220
tempt	-11221
PFC	-11222
Vendor	-11223
minecraft	-11224
izard	-11225
Atomic	-11226
ildcard	-11227
▁encodeVarint	-11228
Currency	-11229
sol	-11230
attachment	-11231
stri	-11232
scp	-11233
▁AUD	-11234
auge	-11235
xe	-11236
▁pod	-11237
NAND	-11238
▁fr	-11239
Keywords	-11240
dataType	-11241
▁words	-11242
RADIO	-11243
getObject	-11244
MGMT	-11245
5);	-11246
verb	-11247
ardown	-11248
conversion	-11249
CALLBACK	-11250
formation	-11251
Occur	-11252
handles	-11253
IRK	-11254
ech	-11255
Specific	-11256
▁Label	-11257
sensitive	-11258
SAS	-11259
Lua	-11260
▁kwargs	-11261
bpf	-11262
GY	-11263
SOR	-11264
BROADCAST	-11265
▁Min	-11266
vbi	-11267
▁xhr	-11268
spawn	-11269
removed	-11270
ccb	-11271
INSN	-11272
mps	-11273
configs	-11274
onChange	-11275
'){	-11276
footer	-11277
▁CE	-11278
za	-11279
candidate	-11280
##_	-11281
Inputs	-11282
714	-11283
InstanceOf	-11284
Team	-11285
Views	-11286
truncate	-11287
VMX	-11288
ODM	-11289
optim	-11290
264_	-11291
atterlist	-11292
PLUS	-11293
thca	-11294
Comparison	-11295
▁category	-11296
Payment	-11297
receiver	-11298
nodeValue	-11299
avin	-11300
▁Ge	-11301
nest	-11302
SPC	-11303
msix	-11304
Deprecated	-11305
gradient	-11306
Inv	-11307
LAT	-11308
mdelay	-11309
',$	-11310
DeepCopyInto	-11311
strncpy	-11312
OTG	-11313
ENET	-11314
hwmon	-11315
PKCS	-11316
ByteBuffer	-11317
▁remaining	-11318
MIB	-11319
tape	-11320
({'	-11321
requires	-11322
2()	-11323
▁edit	-11324
Projection	-11325
HRESULT	-11326
segs	-11327
▁WRITE	-11328
FLG	-11329
sram	-11330
redis	-11331
scaling	-11332
Star	-11333
▁username	-11334
▁Grid	-11335
ANG	-11336
secondary	-11337
bandwidth	-11338
GBE	-11339
▁complete	-11340
ints	-11341
▁Find	-11342
▁xfrm	-11343
▁mime	-11344
IPI	-11345
hoto	-11346
GRAM	-11347
dependencies	-11348
Illegal	-11349
mlog	-11350
cil	-11351
interp	-11352
lhs	-11353
getWidth	-11354
normalized	-11355
LAR	-11356
▁CF	-11357
iration	-11358
SDValue	-11359
hwfn	-11360
▁Render	-11361
USED	-11362
!!	-11363
▁bd	-11364
▁EVP	-11365
▁decl	-11366
Colour	-11367
WebInspector	-11368
REMOVE	-11369
resolution	-11370
avinci	-11371
large	-11372
Parallel	-11373
CANCE	-11374
pj	-11375
Restore	-11376
SAMP	-11377
IsNil	-11378
Tensor	-11379
fabric	-11380
)||(	-11381
_40	-11382
sdma	-11383
uter	-11384
Foreign	-11385
Fmt	-11386
▁bg	-11387
Rout	-11388
dso	-11389
nim	-11390
Med	-11391
logic	-11392
SEARCH	-11393
▁trigger	-11394
▁plot	-11395
panded	-11396
OfWeek	-11397
PUBL	-11398
bootstrap	-11399
ptp	-11400
▁changed	-11401
Unsafe	-11402
80211	-11403
!--	-11404
▁maybe	-11405
▁Filter	-11406
getFullYear	-11407
mpc	-11408
ZZ	-11409
includes	-11410
VD	-11411
▁Tool	-11412
elen	-11413
▁ws	-11414
4->	-11415
▁Im	-11416
▁ethtool	-11417
▁identifier	-11418
ISD	-11419
▁encoder	-11420
Seed	-11421
Invocation	-11422
hh	-11423
▁rm	-11424
▁sqlite	-11425
▁ET	-11426
Nano	-11427
▁loader	-11428
SUR	-11429
▁pf	-11430
▁jasmine	-11431
TRI	-11432
Leave	-11433
▁Utils	-11434
▁writ	-11435
SMB	-11436
"/>	-11437
paren	-11438
SCLK	-11439
getState	-11440
recalc	-11441
mainder	-11442
chat	-11443
▁Null	-11444
▁AM	-11445
workspace	-11446
Tail	-11447
Rpc	-11448
],[-	-11449
▁Button	-11450
Mixin	-11451
toJSON	-11452
mfd	-11453
CAT	-11454
ushort	-11455
▁ioutil	-11456
▁boot	-11457
▁inc	-11458
divider	-11459
fdt	-11460
ki	-11461
1000	-11462
200_	-11463
cpufreq	-11464
27_	-11465
subs	-11466
errupted	-11467
SMALL	-11468
rapp	-11469
▁btn	-11470
criteria	-11471
dependency	-11472
▁ABS	-11473
Motion	-11474
▁cpp	-11475
Cells	-11476
ifa	-11477
visual	-11478
▁!!(	-11479
blur	-11480
▁VX	-11481
unded	-11482
JPEG	-11483
32)(	-11484
▁cho	-11485
ntfs	-11486
COOKIE	-11487
Sizes	-11488
WLAN	-11489
feat	-11490
▁Dictionary	-11491
▁bw	-11492
sired	-11493
2.0	-11494
intent	-11495
MIPS	-11496
Union	-11497
ViewById	-11498
▁program	-11499
absolute	-11500
clocks	-11501
mcp	-11502
Ticks	-11503
▁kmem	-11504
gfp	-11505
recovery	-11506
icip	-11507
dbc	-11508
▁slave	-11509
Transformer	-11510
ISDN	-11511
pq	-11512
PFN	-11513
▁Entry	-11514
strlcpy	-11515
▁TA	-11516
oms	-11517
epoch	-11518
ceed	-11519
▁transport	-11520
▁getName	-11521
onymous	-11522
▁dib	-11523
▁dialog	-11524
bon	-11525
STRICT	-11526
callee	-11527
EXTENSION	-11528
▁BR	-11529
Soft	-11530
BLA	-11531
ListView	-11532
always	-11533
BIOS	-11534
ceeded	-11535
▁Global	-11536
Blk	-11537
Sensor	-11538
picture	-11539
slow	-11540
JUNIPER	-11541
[*	-11542
_88	-11543
agon	-11544
DAIFMT	-11545
▁Opt	-11546
nate	-11547
FORE	-11548
backgroundColor	-11549
PUSH	-11550
▁two	-11551
▁asn	-11552
addrlen	-11553
CRIT	-11554
waitFor	-11555
charge	-11556
▁interval	-11557
Palette	-11558
Dll	-11559
_24	-11560
PARAMS	-11561
lut	-11562
SDR	-11563
TRANSFER	-11564
▁Parser	-11565
▁OR	-11566
▁helper	-11567
dater	-11568
▁ARG	-11569
5100_	-11570
ication	-11571
Needed	-11572
EB	-11573
▁raise	-11574
clkr	-11575
▁Connection	-11576
FORK	-11577
aring	-11578
▁ngx	-11579
ibl	-11580
Age	-11581
osb	-11582
****	-11583
sclk	-11584
isDefault	-11585
Px	-11586
Talk	-11587
vreg	-11588
▁Debug	-11589
SIMPLE	-11590
baud	-11591
cepted	-11592
ostream	-11593
customer	-11594
Daemon	-11595
▁gp	-11596
Circle	-11597
▁span	-11598
DEFINED	-11599
REMOTE	-11600
ObjectType	-11601
Gre	-11602
▁inv	-11603
Maximum	-11604
CONNECTED	-11605
objWriter	-11606
}}},	-11607
specs	-11608
▁Configuration	-11609
▁product	-11610
▁stdout	-11611
:[],	-11612
aspect	-11613
Dispose	-11614
readonly	-11615
planes	-11616
getField	-11617
ingContext	-11618
ACKET	-11619
scaler	-11620
sung	-11621
Slash	-11622
BRIDGE	-11623
pga	-11624
RTN	-11625
4030_	-11626
eff	-11627
isk	-11628
indirect	-11629
Dash	-11630
getHeight	-11631
additional	-11632
PMC	-11633
▁extend	-11634
datum	-11635
CONDS	-11636
__1,	-11637
Tester	-11638
▁CFG	-11639
kern	-11640
startTime	-11641
▁contain	-11642
564	-11643
CHG	-11644
nto	-11645
▁implode	-11646
orders	-11647
IPSR	-11648
713	-11649
Advance	-11650
VERBOSE	-11651
hib	-11652
▁sid	-11653
▁Main	-11654
indexes	-11655
proj	-11656
COLUMN	-11657
▁CAN	-11658
pvt	-11659
▁tl	-11660
posed	-11661
CheckBox	-11662
▁DM	-11663
▁rk	-11664
until	-11665
▁pending	-11666
MOUSE	-11667
getTarget	-11668
fieldName	-11669
jj	-11670
OO	-11671
16;	-11672
_1(	-11673
recover	-11674
COLL	-11675
BOUND	-11676
▁isp	-11677
ANCH	-11678
contentType	-11679
▁EP	-11680
▁HTTP	-11681
93_	-11682
mirror	-11683
ade	-11684
eventName	-11685
_00	-11686
scanner	-11687
▁Unsupported	-11688
▁complex	-11689
lists	-11690
▁existing	-11691
▁SS	-11692
Utf	-11693
VersionUID	-11694
▁coll	-11695
lq	-11696
{};	-11697
icture	-11698
▁VK	-11699
pcidev	-11700
94	-11701
wheel	-11702
Pull	-11703
980	-11704
▁condition	-11705
▁suite	-11706
▁strcmp	-11707
▁OPENSSL	-11708
▁FW	-11709
SELF	-11710
565	-11711
▁Control	-11712
quad	-11713
▁ls	-11714
Latin	-11715
Translate	-11716
hose	-11717
Wallet	-11718
itv	-11719
ilon	-11720
)*(	-11721
pairs	-11722
▁cred	-11723
Collect	-11724
hwmgr	-11725
▁nand	-11726
ALE	-11727
backdrop	-11728
▁Active	-11729
subdevice	-11730
inverse	-11731
Scal	-11732
▁DT	-11733
scache	-11734
ICS	-11735
HashCode	-11736
manifest	-11737
▁spe	-11738
devdata	-11739
retries	-11740
Lazy	-11741
▁bail	-11742
distr	-11743
LITERAL	-11744
ones	-11745
▁LCD	-11746
:40>	-11747
▁NAME	-11748
Accessible	-11749
XOR	-11750
▁ATOM	-11751
▁multi	-11752
Numbers	-11753
▁Imm	-11754
&(	-11755
Encryption	-11756
0]	-11757
Continue	-11758
:0.5	-11759
Quad	-11760
▁uc	-11761
NTI	-11762
CIA	-11763
▁mwifiex	-11764
▁configuration	-11765
HARD	-11766
sktop	-11767
Testing	-11768
RETRY	-11769
Subscriber	-11770
▁NAND	-11771
EOL	-11772
negative	-11773
ASM	-11774
bean	-11775
Cleanup	-11776
74	-11777
izers	-11778
(0	-11779
prm	-11780
SIS	-11781
▁Ro	-11782
Pix	-11783
▁hdmi	-11784
▁FS	-11785
:2.0	-11786
processing	-11787
mutable	-11788
Blue	-11789
13,	-11790
]="	-11791
▁**)	-11792
▁*__	-11793
ifr	-11794
iline	-11795
coin	-11796
bum	-11797
easing	-11798
getFirst	-11799
PrototypeOf	-11800
oe	-11801
Macro	-11802
spot	-11803
isIn	-11804
▁atom	-11805
Dependencies	-11806
Minimum	-11807
uaccess	-11808
__((	-11809
gz	-11810
8723	-11811
SMART	-11812
Username	-11813
Prepare	-11814
casecmp	-11815
EVENTS	-11816
VGA	-11817
outerHeight	-11818
ICR	-11819
;},	-11820
QUOTA	-11821
VECT	-11822
▁SL	-11823
vdd	-11824
ioremap	-11825
▁Device	-11826
categories	-11827
vsync	-11828
terminate	-11829
▁conversion	-11830
SCOPE	-11831
▁(1<<	-11832
▁HE	-11833
getSize	-11834
▁The	-11835
slic	-11836
()):	-11837
BOT	-11838
framebuffer	-11839
_825	-11840
crt	-11841
▁(!_	-11842
rune	-11843
▁relative	-11844
Choice	-11845
querySelectorAll	-11846
TimeZone	-11847
reqs	-11848
formance	-11849
▁Unmarshal	-11850
setEnabled	-11851
Collector	-11852
CPP	-11853
IER	-11854
unix	-11855
cts	-11856
Marshall	-11857
scc	-11858
6000_	-11859
SCAL	-11860
LASSERT	-11861
vk	-11862
REST	-11863
Scanner	-11864
dio	-11865
bfad	-11866
ocfs	-11867
eql	-11868
▁ER	-11869
▁bfd	-11870
caption	-11871
nlen	-11872
▁impl	-11873
▁Mo	-11874
rip	-11875
▁svg	-11876
DYNAMIC	-11877
JsonProperty	-11878
▁iface	-11879
IFTYPE	-11880
getOwnProperty	-11881
SLI	-11882
anded	-11883
▁testGet	-11884
react	-11885
tracker	-11886
▁noop	-11887
MBO	-11888
▁fragment	-11889
sky	-11890
FRM	-11891
▁ia	-11892
Workspace	-11893
Quota	-11894
land	-11895
▁Ali	-11896
▁BYTE	-11897
▁BC	-11898
gene	-11899
ational	-11900
StringLen	-11901
InitStruct	-11902
Patterns	-11903
▁6	-11904
PV	-11905
addChild	-11906
Suggest	-11907
intellij	-11908
Catch	-11909
▁scheme	-11910
▁cached	-11911
▁Machine	-11912
lighter	-11913
ighest	-11914
Authorization	-11915
atial	-11916
▁strip	-11917
GF	-11918
WithContext	-11919
▁rune	-11920
caller	-11921
removeAttribute	-11922
strategy	-11923
Cpu	-11924
1234	-11925
POR	-11926
itter	-11927
mppc	-11928
"}),	-11929
▁rsa	-11930
58	-11931
wdev	-11932
▁decoder	-11933
",!	-11934
HDIO	-11935
pinfo	-11936
Parsed	-11937
vered	-11938
Wide	-11939
500_	-11940
relse	-11941
VX	-11942
Frequency	-11943
Lists	-11944
VIS	-11945
MMAP	-11946
ofdm	-11947
")||	-11948
▁AUT	-11949
▁subsc	-11950
Spacing	-11951
esModule	-11952
▁outer	-11953
"],["	-11954
RQ	-11955
▁skippy	-11956
EDED	-11957
Levels	-11958
Locator	-11959
getArg	-11960
Tracking	-11961
Uuid	-11962
▁SIGN	-11963
15,	-11964
aming	-11965
▁ni	-11966
▁anchor	-11967
ww	-11968
▁ODM	-11969
▁dot	-11970
PCR	-11971
Av	-11972
▁safe	-11973
Outer	-11974
▁Content	-11975
ioport	-11976
icies	-11977
notice	-11978
orn	-11979
Marshaler	-11980
▁Instruction	-11981
sto	-11982
filePath	-11983
▁methods	-11984
":{	-11985
TUNER	-11986
Foo	-11987
▁Template	-11988
▁rds	-11989
▁IWL	-11990
bch	-11991
drawable	-11992
periment	-11993
ToInt	-11994
▁Close	-11995
carry	-11996
TreeNode	-11997
clkdm	-11998
▁via	-11999
▁((!	-12000
Sharp	-12001
QCOMPARE	-12002
▁mi	-12003
ATTACH	-12004
pctl	-12005
EBAD	-12006
gray	-12007
▁helpers	-12008
through	-12009
SPIN	-12010
iserfs	-12011
Cols	-12012
090	-12013
Resume	-12014
ignored	-12015
Pause	-12016
exynos	-12017
14,	-12018
')])	-12019
▁pch	-12020
'});	-12021
OPERATION	-12022
krb	-12023
>/,"	-12024
▁Schema	-12025
qa	-12026
analog	-12027
))));	-12028
")+	-12029
80215	-12030
Mut	-12031
7;	-12032
quires	-12033
matic	-12034
SizeofSockaddr	-12035
▁__('	-12036
Coverage	-12037
▁Tw	-12038
8[	-12039
▁Memory	-12040
▁DIF	-12041
assertNull	-12042
Pairs	-12043
▁prepare	-12044
Shown	-12045
MLE	-12046
TIFF	-12047
ValueError	-12048
xpath	-12049
▁bank	-12050
WP	-12051
ppp	-12052
▁exc	-12053
CCK	-12054
▁NFS	-12055
RDONLY	-12056
▁hf	-12057
ASCII	-12058
Launch	-12059
▁destination	-12060
(**	-12061
▁Can	-12062
110_	-12063
angles	-12064
Reject	-12065
Exceptions	-12066
illa	-12067
Exchange	-12068
dial	-12069
prime	-12070
analysis	-12071
:'\0'>)	-12072
]].	-12073
like	-12074
ObjC	-12075
▁SB	-12076
Construct	-12077
physical	-12078
cookies	-12079
paused	-12080
Dummy	-12081
Terminal	-12082
CRTC	-12083
Modes	-12084
Asm	-12085
▁argument	-12086
Look	-12087
lisher	-12088
vortex	-12089
ACY	-12090
▁columns	-12091
course	-12092
,,	-12093
hwnd	-12094
lodash	-12095
▁warning	-12096
buflen	-12097
tmpl	-12098
▁nes	-12099
aby	-12100
keyboard	-12101
501_	-12102
▁transaction	-12103
SECOND	-12104
▁Expr	-12105
Extend	-12106
▁CRYPTO	-12107
▁ol	-12108
▁fopen	-12109
Extent	-12110
▁hs	-12111
Insn	-12112
Precision	-12113
_=	-12114
striction	-12115
Quantity	-12116
txn	-12117
▁ON	-12118
kn	-12119
2-	-12120
Such	-12121
gcc	-12122
▁FOR	-12123
▁):	-12124
▁pref	-12125
getFile	-12126
SCRIP	-12127
▁OB	-12128
▁minor	-12129
MarshalTo	-12130
Endpoints	-12131
▁flat	-12132
getStyle	-12133
HANDLER	-12134
retty	-12135
stv	-12136
ASON	-12137
UST	-12138
▁enumerate	-12139
NORM	-12140
MSEL	-12141
composite	-12142
outerWidth	-12143
getLength	-12144
▁Illuminate	-12145
tu	-12146
TIOCPKT	-12147
;;;;	-12148
patterns	-12149
▁wi	-12150
▁hist	-12151
Arc	-12152
IPA	-12153
deli	-12154
NOTICE	-12155
filer	-12156
])}	-12157
MACHINE	-12158
▁Benchmark	-12159
->__	-12160
▁Mage	-12161
bindings	-12162
Calculation	-12163
SEM	-12164
Matchers	-12165
▁ks	-12166
xfrm	-12167
▁export	-12168
getHours	-12169
partitions	-12170
Board	-12171
ona	-12172
OVERR	-12173
MALLOC	-12174
currentTarget	-12175
FIED	-12176
Authentic	-12177
▁HashSet	-12178
thumb	-12179
32[	-12180
Pers	-12181
illisecond	-12182
readb	-12183
▁bi	-12184
Ordinal	-12185
oned	-12186
▁defaultValue	-12187
▁vertex	-12188
Est	-12189
"],[	-12190
▁scnprintf	-12191
Bank	-12192
cms	-12193
▁Rule	-12194
NFS	-12195
Rt	-12196
General	-12197
scripts	-12198
▁machine	-12199
Did	-12200
98	-12201
Initializer	-12202
77_	-12203
▁Offset	-12204
enus	-12205
Bg	-12206
OCT	-12207
posable	-12208
500	-12209
clientdata	-12210
▁Inf	-12211
64;	-12212
respond	-12213
_256_	-12214
▁qed	-12215
95_	-12216
RAT	-12217
Interop	-12218
HL	-12219
MLINK	-12220
▁mr	-12221
åååå	-12222
▁srv	-12223
Caps	-12224
membase	-12225
atest	-12226
may	-12227
SIX	-12228
uV	-12229
passed	-12230
▁CHE	-12231
dirent	-12232
▁lat	-12233
lavor	-12234
toHave	-12235
▁priority	-12236
andidates	-12237
▁background	-12238
iwl	-12239
MPT	-12240
Bot	-12241
Frag	-12242
filled	-12243
Wa	-12244
Chr	-12245
▁MSM	-12246
</<	-12247
erature	-12248
MIS	-12249
:':	-12250
intersect	-12251
Conditional	-12252
▁email	-12253
Balancer	-12254
Watcher	-12255
▁ids	-12256
▁SU	-12257
Pressed	-12258
icol	-12259
igrate	-12260
dfs	-12261
ALARM	-12262
▁assign	-12263
▁tex	-12264
ImGui	-12265
IZED	-12266
Ack	-12267
]&&(	-12268
Logs	-12269
wall	-12270
▁validation	-12271
PORTS	-12272
+002	-12273
ipt	-12274
TXD	-12275
▁styles	-12276
OVERFLOW	-12277
▁PA	-12278
izing	-12279
ferent	-12280
References	-12281
▁translate	-12282
▁pwm	-12283
vention	-12284
Sens	-12285
compression	-12286
▁browser	-12287
▁side	-12288
rat	-12289
Aff	-12290
sparse	-12291
CXX	-12292
pData	-12293
Publish	-12294
'})	-12295
▁stderr	-12296
▁*>(	-12297
5:	-12298
▁buflen	-12299
Editable	-12300
).'	-12301
MCE	-12302
RESOL	-12303
2388	-12304
uit	-12305
OLL	-12306
WK	-12307
Placeholder	-12308
Addresses	-12309
wf	-12310
Alter	-12311
TID	-12312
Poll	-12313
Parcel	-12314
Unmarshaller	-12315
dayNames	-12316
Capability	-12317
▁Multi	-12318
64);	-12319
MBEDTLS	-12320
moz	-12321
▁scatterlist	-12322
▁prot	-12323
wol	-12324
Refs	-12325
▁dsp	-12326
▁Ob	-12327
Gtk	-12328
qq	-12329
ntl	-12330
pearance	-12331
RECE	-12332
ention	-12333
defaultValue	-12334
osition	-12335
TMP	-12336
▁dwc	-12337
32->	-12338
LOOPBACK	-12339
sdvo	-12340
LEG	-12341
▁marker	-12342
SCREEN	-12343
)>	-12344
▁lpfc	-12345
hier	-12346
illing	-12347
cdb	-12348
▁ttm	-12349
SIL	-12350
iot	-12351
Fallback	-12352
cmsg	-12353
SIM	-12354
pexpr	-12355
MIME	-12356
vnode	-12357
mpp	-12358
strtoul	-12359
swt	-12360
Pas	-12361
FOLLOW	-12362
Cred	-12363
EXTENDED	-12364
Coordinate	-12365
mas	-12366
loads	-12367
strcat	-12368
spath	-12369
languages	-12370
opl	-12371
dbl	-12372
FFS	-12373
"]["	-12374
ETIMEDOUT	-12375
sibling	-12376
rete	-12377
learn	-12378
TB	-12379
ibdev	-12380
Workflow	-12381
THROW	-12382
PUBLIC	-12383
;};	-12384
removeListener	-12385
StateException	-12386
DisplayName	-12387
Charset	-12388
▁po	-12389
inArray	-12390
WT	-12391
ys	-12392
msecs	-12393
combo	-12394
HER	-12395
MID	-12396
phi	-12397
CONTA	-12398
▁cli	-12399
ucv	-12400
▁CHECK	-12401
Critical	-12402
bbrev	-12403
THIS	-12404
Fs	-12405
▁notifier	-12406
Hard	-12407
▁arm	-12408
istent	-12409
Qualified	-12410
willReturn	-12411
▁sv	-12412
RACE	-12413
▁AE	-12414
llc	-12415
MOZ	-12416
▁parallel	-12417
conntrack	-12418
Tabs	-12419
xtures	-12420
▁Menu	-12421
barrier	-12422
▁sil	-12423
▁which	-12424
PARITY	-12425
▁vs	-12426
yyv	-12427
WARD	-12428
dropped	-12429
Migration	-12430
rxq	-12431
HashSet	-12432
izzle	-12433
▁Ident	-12434
strong	-12435
genomic	-12436
▁signature	-12437
assertIs	-12438
▁ae	-12439
SIBLE	-12440
rsv	-12441
collision	-12442
▁fixed	-12443
etter	-12444
▁hashCode	-12445
StartTime	-12446
▁manager	-12447
Packed	-12448
PMU	-12449
SYSCALL	-12450
DIRECTORY	-12451
▁IF	-12452
Ax	-12453
▁FF	-12454
▁NR	-12455
Singleton	-12456
msk	-12457
combine	-12458
▁FP	-12459
uess	-12460
FoldMode	-12461
▁band	-12462
REJECT	-12463
▁toggle	-12464
▁channels	-12465
plist	-12466
dll	-12467
▁TC	-12468
OSE	-12469
NONBLOCK	-12470
Capabilities	-12471
▁Count	-12472
Ctor	-12473
▁Red	-12474
mappings	-12475
NM	-12476
NodeType	-12477
istd	-12478
GOOD	-12479
printLine	-12480
▁Project	-12481
ErrorMessage	-12482
WORDS	-12483
Principal	-12484
NAT	-12485
▁(),	-12486
nvram	-12487
GRE	-12488
raises	-12489
Brace	-12490
Blur	-12491
▁Ref	-12492
CHANNELS	-12493
TRFS	-12494
▁Game	-12495
keymap	-12496
astic	-12497
▁Transform	-12498
▁TIOC	-12499
CYCLE	-12500
xid	-12501
_128_	-12502
svn	-12503
slug	-12504
Else	-12505
EMU	-12506
chans	-12507
predicate	-12508
_1;	-12509
Resolved	-12510
▁IntPtr	-12511
PIC	-12512
DEAD	-12513
uchar	-12514
ChangeListener	-12515
Deleted	-12516
Dr	-12517
GV	-12518
isEqualTo	-12519
raid	-12520
compact	-12521
textarea	-12522
QUIRK	-12523
▁rgb	-12524
Rank	-12525
getDay	-12526
pagin	-12527
▁AVERROR	-12528
ENTRIES	-12529
▁fieldNum	-12530
pended	-12531
Weak	-12532
965	-12533
lared	-12534
ctime	-12535
▁li	-12536
acle	-12537
colon	-12538
GTK	-12539
Devices	-12540
ENSION	-12541
▁Properties	-12542
▁Ret	-12543
▁tensorflow	-12544
▁Comple	-12545
Funcs	-12546
▁dynamic	-12547
NETWORK	-12548
ldo	-12549
codecSelfer	-12550
synchron	-12551
launch	-12552
▁DAG	-12553
removeAttr	-12554
)%	-12555
Fo	-12556
editable	-12557
Threads	-12558
unistd	-12559
cvmx	-12560
SDK	-12561
rfkill	-12562
▁flash	-12563
SEEK	-12564
hadoop	-12565
reshape	-12566
outw	-12567
Inc	-12568
__1	-12569
rac	-12570
pipes	-12571
eg	-12572
Undo	-12573
getColumn	-12574
payment	-12575
Instant	-12576
SHOT	-12577
SDIO	-12578
coordinates	-12579
▁glyph	-12580
emulate	-12581
REND	-12582
dg	-12583
▁Print	-12584
compose	-12585
<'	-12586
▁Column	-12587
hints	-12588
waiting	-12589
▁angular	-12590
▁OUT	-12591
Creature	-12592
▁CT	-12593
lineWidth	-12594
quick	-12595
pud	-12596
wallet	-12597
GD	-12598
":["	-12599
bk	-12600
ityEngine	-12601
Animator	-12602
LCR	-12603
▁keep	-12604
Indexed	-12605
▁times	-12606
▁IRQF	-12607
DOG	-12608
97,	-12609
nativeObj	-12610
ECHO	-12611
BINARY	-12612
RXD	-12613
CString	-12614
▁clazz	-12615
moyo	-12616
tell	-12617
ASH	-12618
TOUCH	-12619
▁dr	-12620
buckets	-12621
▁SQLException	-12622
getter	-12623
primitive	-12624
▁ipa	-12625
MSC	-12626
ttl	-12627
OrEmpty	-12628
Ant	-12629
Det	-12630
▁TRAN	-12631
nilfs	-12632
▁Decode	-12633
allo	-12634
XHR	-12635
FIRMWARE	-12636
joint	-12637
CONSTANT	-12638
▁dispatch	-12639
▁BASE	-12640
▁cljs	-12641
capable	-12642
11>,	-12643
ners	-12644
cipe	-12645
ease	-12646
unref	-12647
▁addrlen	-12648
RK	-12649
TabIndex	-12650
')(	-12651
150_	-12652
LEAVE	-12653
▁cipher	-12654
templates	-12655
GI	-12656
_20	-12657
▁Header	-12658
MAPPING	-12659
ilege	-12660
devinit	-12661
Canonical	-12662
210	-12663
entropy	-12664
explicit	-12665
▁CTL	-12666
▁sx	-12667
▁classes	-12668
Placement	-12669
AGC	-12670
CUST	-12671
DENT	-12672
▁OFF	-12673
Den	-12674
outl	-12675
aps	-12676
SSID	-12677
numpad	-12678
finalize	-12679
csv	-12680
▁ur	-12681
▁Script	-12682
▁unlock	-12683
herit	-12684
▁Dtype	-12685
PEN	-12686
OFDM	-12687
lz	-12688
11.	-12689
▁train	-12690
hu	-12691
GROUPS	-12692
)?(	-12693
streaming	-12694
subtype	-12695
▁sep	-12696
locals	-12697
▁Native	-12698
▁htonl	-12699
]["	-12700
▁Stack	-12701
▁mis	-12702
Diagnostic	-12703
rdata	-12704
LISTEN	-12705
▁We	-12706
TEMPLATE	-12707
StringTo	-12708
▁Pol	-12709
▁ISCSI	-12710
▁HOST	-12711
RNA	-12712
▁mbed	-12713
▁multip	-12714
statistics	-12715
APPEND	-12716
getUTC	-12717
Edges	-12718
hlist	-12719
▁adjust	-12720
uck	-12721
▁mtk	-12722
▁brcmf	-12723
▁CSS	-12724
plural	-12725
▁DU	-12726
elapsed	-12727
BAT	-12728
onClick	-12729
NATIVE	-12730
76_	-12731
PAYLOAD	-12732
lying	-12733
▁rval	-12734
ROT	-12735
▁paths	-12736
Enumerator	-12737
lba	-12738
getSource	-12739
Equ	-12740
newline	-12741
Signing	-12742
ASSOC	-12743
WATCH	-12744
bmap	-12745
33_	-12746
▁Channel	-12747
LENAME	-12748
methodName	-12749
=['	-12750
Pid	-12751
Broadcast	-12752
▁UInt	-12753
▁LIST	-12754
SRV	-12755
brelse	-12756
RDMA	-12757
▁rw	-12758
REFER	-12759
▁UNIP	-12760
DETECT	-12761
ura	-12762
prim	-12763
6:	-12764
isac	-12765
▁amd	-12766
Timing	-12767
Parsing	-12768
▁mbedtls	-12769
deb	-12770
Cases	-12771
recur	-12772
four	-12773
hmac	-12774
axi	-12775
getLast	-12776
REASON	-12777
Binder	-12778
mcs	-12779
Keep	-12780
▁blocks	-12781
▁ONE	-12782
PLATFORM	-12783
gered	-12784
ceph	-12785
iance	-12786
▁binding	-12787
Sid	-12788
errorCode	-12789
DURATION	-12790
ZONE	-12791
Fault	-12792
SCTP	-12793
canf	-12794
▁digest	-12795
▁viewport	-12796
PEER	-12797
Replica	-12798
argins	-12799
▁attach	-12800
MEMBERSHIP	-12801
asoc	-12802
Timespec	-12803
▁pn	-12804
")&&	-12805
AXIS	-12806
▁[]);	-12807
▁2)	-12808
versions	-12809
preter	-12810
entral	-12811
mds	-12812
aving	-12813
▁nt	-12814
ViewModel	-12815
▁subject	-12816
ingerprint	-12817
terms	-12818
▁smc	-12819
ppd	-12820
RSSI	-12821
thd	-12822
▁xdr	-12823
ycler	-12824
YAHOO	-12825
Footer	-12826
▁serialize	-12827
Mreq	-12828
▁mount	-12829
▁conv	-12830
userId	-12831
TableName	-12832
gus	-12833
Optim	-12834
▁compile	-12835
sockaddr	-12836
mant	-12837
Managed	-12838
letter	-12839
▁elf	-12840
▁pages	-12841
ena	-12842
ari	-12843
▁MAP	-12844
ffe	-12845
BRD	-12846
Skin	-12847
Steps	-12848
acb	-12849
vout	-12850
718	-12851
UserId	-12852
swig	-12853
Magento	-12854
InstanceState	-12855
LVL	-12856
arDown	-12857
cycles	-12858
())->	-12859
FIB	-12860
Solver	-12861
▁unittest	-12862
pkts	-12863
])<<	-12864
SIZ	-12865
lpfc	-12866
strTest	-12867
▁intr	-12868
UChar	-12869
DID	-12870
▁chars	-12871
IMPORT	-12872
MET	-12873
vram	-12874
917	-12875
ferred	-12876
past	-12877
NAN	-12878
Ship	-12879
▁Sm	-12880
▁navig	-12881
▁Make	-12882
endian	-12883
▁Html	-12884
▁renderer	-12885
▁lb	-12886
ResponseWriter	-12887
▁att	-12888
▁animation	-12889
dispatchEvent	-12890
stereo	-12891
Populated	-12892
▁VALUE	-12893
▁Remote	-12894
▁UNIPHIER	-12895
tech	-12896
Shortcut	-12897
fuzz	-12898
linked	-12899
catalog	-12900
▁SA	-12901
81	-12902
▁wa	-12903
getLocal	-12904
pmic	-12905
readInt	-12906
FATAL	-12907
SCM	-12908
▁printf	-12909
▁typename	-12910
▁ld	-12911
▁batadv	-12912
thenReturn	-12913
Months	-12914
7134_	-12915
Shutdown	-12916
bufsize	-12917
Credential	-12918
Abbrev	-12919
▁ml	-12920
goff	-12921
ddr	-12922
recursive	-12923
charts	-12924
▁SLOT	-12925
Using	-12926
mut	-12927
cssText	-12928
fork	-12929
RENAME	-12930
▁strict	-12931
strength	-12932
▁AS	-12933
Ports	-12934
ossible	-12935
formatted	-12936
Alive	-12937
psc	-12938
behav	-12939
aign	-12940
anned	-12941
DEB	-12942
decoded	-12943
ttm	-12944
ValueType	-12945
▁nid	-12946
CHANGED	-12947
]()	-12948
▁Binary	-12949
▁RB	-12950
▁Session	-12951
▁TS	-12952
agc	-12953
Microsoft	-12954
nce	-12955
sdk	-12956
▁pow	-12957
FLAC	-12958
JOIN	-12959
budget	-12960
fficient	-12961
deleted	-12962
Cod	-12963
iding	-12964
_:	-12965
iu	-12966
Requested	-12967
onload	-12968
_802_	-12969
keypad	-12970
square	-12971
maxlen	-12972
Inventory	-12973
▁QU	-12974
▁newValue	-12975
dro	-12976
cflag	-12977
psy	-12978
Preferred	-12979
Large	-12980
ListItem	-12981
Fac	-12982
Verbose	-12983
getResource	-12984
ooth	-12985
▁contains	-12986
Minute	-12987
Conditions	-12988
Interfaces	-12989
initializer	-12990
▁FLASH	-12991
inside	-12992
Stopped	-12993
sptr	-12994
▁security	-12995
setter	-12996
▁Cal	-12997
32()	-12998
vity	-12999
▁psz	-13000
FAMI	-13001
fireEvent	-13002
▁rev	-13003
Descriptors	-13004
LOGGER	-13005
2>	-13006
FPU	-13007
iforms	-13008
fbdev	-13009
Bug	-13010
ICON	-13011
Blank	-13012
pgid	-13013
getSelected	-13014
inherit	-13015
tos	-13016
TERM	-13017
UTIME	-13018
']]	-13019
fsl	-13020
pring	-13021
awk	-13022
allocator	-13023
ambda	-13024
9)	-13025
expanded	-13026
SCIF	-13027
MDP	-13028
EXTRA	-13029
▁SUP	-13030
blog	-13031
etooth	-13032
converter	-13033
dictionary	-13034
▁CHAR	-13035
▁Exit	-13036
BRK	-13037
easy	-13038
RTNLGRP	-13039
affix	-13040
IMG	-13041
bench	-13042
Oct	-13043
▁Copy	-13044
Norm	-13045
Discovery	-13046
iry	-13047
Through	-13048
IDENT	-13049
}}),	-13050
percpu	-13051
assertNot	-13052
▁swap	-13053
osc	-13054
Black	-13055
TypeMeta	-13056
▁Parameter	-13057
▁...)	-13058
rtsx	-13059
▁pvr	-13060
pmlmepriv	-13061
memp	-13062
▁Generic	-13063
▁reserved	-13064
]===	-13065
GENERAL	-13066
SetValue	-13067
()+"	-13068
HALF	-13069
TITLE	-13070
CENTER	-13071
CNIC	-13072
csk	-13073
▁PIPE	-13074
grave	-13075
Some	-13076
▁absolute	-13077
Country	-13078
▁*((	-13079
}());	-13080
.)	-13081
▁SEQ	-13082
CLOEXEC	-13083
▁setting	-13084
KeyValue	-13085
strpos	-13086
xmm	-13087
esNot	-13088
addAll	-13089
▁notify	-13090
▁SR	-13091
Widgets	-13092
:{},	-13093
exe	-13094
opp	-13095
afs	-13096
▁Optional	-13097
▁site	-13098
mh	-13099
▁Host	-13100
▁exists	-13101
▁rnd	-13102
RefPtr	-13103
BUCK	-13104
▁lc	-13105
spr	-13106
jv	-13107
:70>	-13108
pho	-13109
olation	-13110
▁Cache	-13111
Aggregate	-13112
▁Record	-13113
sst	-13114
PN	-13115
▁vcpu	-13116
vblank	-13117
bnx	-13118
▁AX	-13119
Inverse	-13120
8994_	-13121
FILENAME	-13122
who	-13123
▁eps	-13124
▁IPPROTO	-13125
tyEnum	-13126
721	-13127
pst	-13128
VISION	-13129
unless	-13130
Additional	-13131
32((	-13132
Projects	-13133
▁abc	-13134
Ance	-13135
DIGITAL	-13136
▁Random	-13137
Ato	-13138
▁touch	-13139
printer	-13140
edev	-13141
▁PERF	-13142
BSON	-13143
choices	-13144
Lenum	-13145
PX	-13146
Secure	-13147
subtract	-13148
BRANCH	-13149
APIC	-13150
putc	-13151
SPDIF	-13152
)!=	-13153
dcache	-13154
44_	-13155
StringValue	-13156
LAYER	-13157
202	-13158
HandleTypeDef	-13159
errmsg	-13160
Normals	-13161
512_	-13162
)<	-13163
",/<	-13164
▁Internal	-13165
amazon	-13166
▁IPT	-13167
ittleEndian	-13168
erated	-13169
wg	-13170
getY	-13171
DIMENSION	-13172
fq	-13173
sper	-13174
SVD	-13175
MPLEMENT	-13176
vv	-13177
"](	-13178
Room	-13179
parallel	-13180
--;)	-13181
▁fname	-13182
mar	-13183
stdin	-13184
pel	-13185
une	-13186
Maybe	-13187
ComputedStyle	-13188
ContainerState	-13189
▁sequence	-13190
SOLE	-13191
usr	-13192
igrations	-13193
coales	-13194
▁dimension	-13195
▁synchronized	-13196
▁iommu	-13197
iprot	-13198
GFX	-13199
▁world	-13200
notes	-13201
▁strpos	-13202
nextTick	-13203
dispatcher	-13204
closure	-13205
tda	-13206
▁Magento	-13207
utc	-13208
Connections	-13209
▁Scsi	-13210
uman	-13211
Sta	-13212
ij	-13213
AFT	-13214
28_	-13215
▁fifo	-13216
▁percent	-13217
isi	-13218
MULTIP	-13219
MER	-13220
Compound	-13221
msb	-13222
drain	-13223
Pkg	-13224
▁rem	-13225
dereference	-13226
▁repo	-13227
NOW	-13228
▁ratio	-13229
MONTH	-13230
DOT	-13231
▁EINVAL	-13232
Datum	-13233
▁comb	-13234
DefaultValue	-13235
prof	-13236
attached	-13237
▁-->	-13238
Unsupported	-13239
16);	-13240
salt	-13241
..)	-13242
solver	-13243
NullException	-13244
ised	-13245
FSTAT	-13246
Exclude	-13247
xo	-13248
createTextNode	-13249
macro	-13250
▁slide	-13251
▁??	-13252
intValue	-13253
Gl	-13254
descs	-13255
urlParams	-13256
slf	-13257
FTR	-13258
▁BB	-13259
clnt	-13260
LSB	-13261
timers	-13262
tq	-13263
shrink	-13264
ffi	-13265
ournal	-13266
▁hda	-13267
lvds	-13268
IEnum	-13269
▁iore	-13270
▁partition	-13271
▁ord	-13272
Configs	-13273
▁Inter	-13274
▁?>"	-13275
mpeg	-13276
motion	-13277
namespaces	-13278
▁12	-13279
▁score	-13280
▁STB	-13281
GU	-13282
usbdev	-13283
16:	-13284
Too	-13285
▁DP	-13286
▁xs	-13287
ISA	-13288
wmb	-13289
routing	-13290
▁SourceMap	-13291
cmdline	-13292
Listen	-13293
▁tz	-13294
▁printk	-13295
bitrate	-13296
▁cos	-13297
▁extern	-13298
ADR	-13299
23885_	-13300
▁ioremap	-13301
how	-13302
){}	-13303
numberOf	-13304
Reverse	-13305
▁lim	-13306
expire	-13307
CURSOR	-13308
AllTypes	-13309
credit	-13310
irda	-13311
▁vt	-13312
pbuf	-13313
XFF	-13314
▁isArray	-13315
Clicked	-13316
▁Validate	-13317
▁arc	-13318
prefs	-13319
▁fast	-13320
protect	-13321
▁gu	-13322
{$	-13323
CSUM	-13324
911	-13325
▁LE	-13326
))){	-13327
spaces	-13328
Handling	-13329
NewError	-13330
▁reverse	-13331
camel	-13332
STAND	-13333
▁equals	-13334
references	-13335
Wheel	-13336
psmouse	-13337
DELT	-13338
▁xhci	-13339
CRT	-13340
▁EM	-13341
LOWER	-13342
▁&_	-13343
quirks	-13344
PRESS	-13345
Collapse	-13346
▁features	-13347
Tor	-13348
▁pcmcia	-13349
▁disk	-13350
NLM	-13351
Grammar	-13352
gw	-13353
▁libc	-13354
Counts	-13355
▁tls	-13356
▁colors	-13357
positions	-13358
mand	-13359
Mobile	-13360
txd	-13361
▁Audio	-13362
getDocument	-13363
getReg	-13364
skbuff	-13365
Micro	-13366
Pseudo	-13367
DIRECTION	-13368
adm	-13369
locations	-13370
lability	-13371
▁crtc	-13372
dto	-13373
DRAW	-13374
▁PJ	-13375
▁lu	-13376
LING	-13377
▁Common	-13378
CLUDE	-13379
▁Font	-13380
▁cifs	-13381
ahc	-13382
([],	-13383
Gain	-13384
▁Atomic	-13385
ding	-13386
ENOSYS	-13387
Audit	-13388
▁lhs	-13389
ctrine	-13390
++]=	-13391
getAs	-13392
▁nc	-13393
polygon	-13394
Ep	-13395
fpga	-13396
Scripts	-13397
PropertyName	-13398
gro	-13399
▁ln	-13400
blit	-13401
agnostic	-13402
registration	-13403
INTF	-13404
▁Vec	-13405
Cr	-13406
encrypted	-13407
▁Remove	-13408
▁union	-13409
▁OpenLayers	-13410
Quaternion	-13411
▁vidioc	-13412
Mvc	-13413
modifier	-13414
▁instr	-13415
Existing	-13416
rio	-13417
▁LPC	-13418
03_	-13419
▁rts	-13420
without	-13421
▁grpc	-13422
▁tbl	-13423
divide	-13424
PAGES	-13425
__()	-13426
▁TEXT	-13427
purge	-13428
hole	-13429
[...]
